o s
d e
r a
a s
e s
q u
d o
e n
s e
o r
t e
qu e
r e
c o
ã o
i s
d a
t o
t a
a n
i n
a r
e l
e r
u s
a l
e m
p a
l h
a m
o u
d i
co m
i m
p o
d os
r o
u m
f i
m e
c a
en h
v i
r i
pa ra
p or
t i
ra m
s o
co n
enh or
c i
S enhor
n ão
e i
s u
n o
t u
s a
g u
n a
h a
de s
h o
re i
t ra
l e
m a
v o
te r
fi lh
é m
D e
v a
se r
el e
v os
r es
en t
u n
g o
De us
a o
a ,
e u
d as
ç ão
os ,
m o
m en
p e
t es
com o
se u
an do
as ,
f o
i r
su a
u l
po is
l i
d is
c h
c e
b re
es t
se us
b e
es ta
c as
da de
um a
ç a
v er
ra n
di z
ter ra
p r
f a
en do
p ro
so bre
te m
v e
I s
n os
ó s
lh e
n t
g a
m in
t r
l a
s im
b i
l o
c er
p er
á s
b o
ra el
m as
a t
Is rael
m u
filh os
p el
to ,
ta r
c ar
f e
dis se
ta m
ra s
me u
t os
o ,
to dos
b ém
f or
i a
- se
te u
ra ,
te ,
re m
al a
e x
t as
ão ,
por que
c am
n do
b a
E nt
Senhor ,
an to
a os
a p
Ent ão
el es
filh o
d u
p re
con tra
Q u
g ar
po vo
se m
P or
n em
m em
s i
l u
ri a
de u
õ es
1 2
do ,
di a
tam bém
cas a
se gu
é s
e ra
f er
tu a
de r
n i
g i
de i
su as
ma is
m ã
m an
ho mem
o is
at é
v am
an te
c or
v ós
ent re
pois ,
fa z
lh es
t en
to u
min ha
m i
m or
j a
t ro
c u
el a
p ar
t or
m es
s ão
es te
men te
n ci
to do
en te
m ão
e ,
re is
est á
te us
ala v
t in
1 8
fo i
p alav
A s
E s
a b
1 5
m im
1 0
l es
v in
h e
1 4
a c
men s
os .
p ra
po n
d á
qu ando
ho mens
1 3
a do
ser á
le v
b ra
ta n
p i
o n
a que
qu i
p os
ar á
que m
ç ões
- lhe
n as
r á
1 1
as sim
N ão
ch e
b er
j u
s an
p as
J es
1 7
f al
to da
a is
ei ro
1 6
co is
qu anto
ém ,
D a
1 9
o lh
en ta
r os
m os
c ri
lh er
ç o
z e
diz endo
vi a
di ante
g ran
M as
2 1
r u
ou vi
Jes us
[ 2
is so
da ,
pel o
mu i
do r
Deus ,
- me
al i
s os
2 0
dizendo :
ra ção
Da vi
J er
n e
is to
fi ca
mu lher
S e
qu al
H e
i ,
ca us
g ra
en to
tu do
ci dade
in da
t ri
to das
no me
j un
lu gar
J u
i o
re in
da r
v el
sa cer
As sim
que ,
h á
or de
v al
gran de
en s
sacer do
as .
m al
cam in
m ar
j us
2 2
p res
p u
i g
M B
c an
e is
es ,
He ap
b em
Heap :
ta ,
c l
co ração
ri o
Ju dá
disse :
s ou
segu ndo
pr im
M ois
Mois és
ha bi
fe z
ch am
pel a
v es
us al
Israel ,
vo l
i u
Jer usal
n s
a inda
de les
l an
S a
os ;
í ri
ê s
z a
ca da
tu ra
c é
r ou
es p
T o
s al
c ul
f ei
n te
o fer
in i
ê nci
me us
do .
en tra
im a
P ois
e ram
2 3
aque le
j o
á gu
r ão
Senhor .
dos ,
fo ram
n ós
pon deu
por ém,
gu ar
mes mo
de le
re ce
2 4
esta va
J e
é r
di as
O s
pa i
con he
tin ha
p ul
/ 1
palav ra
á ,
ro ,
da des
me io
c in
- lhes
v en
i dade
O ra,
ta ram
ir mã
- te
í ci
pro fe
to .
al g
co u
tr u
2 5
s as
E is
l ei
N a
j á
u r
de us
ent os
t enh
v is
caus a
li v
c eu
h as
pe ca
o b
ção ,
p es
P a
dei x
se ja
a go
fi z
j e
E u
Por que
que r
camin ho
v em
is se
E gi
ra r
2 6
tes ,
pr ó
ent ão
gu ém
pe ran
terra ,
t os,
o .
5 5
ha via
palav ras
cois as
4 /
g l
is ,
c es
o m
ca be
i x
z i
po der
tem po
- vos
s ó
ér ci
po de
v ei
é ,
lev an
ã ,
des de
in s
f ar
con s
R es
de ,
2 7
do :
ver dade
Deus .
2 8
J os
ex érci
es pa
j am
com e
gu e
3 1
c í
est ão
D isse
J o
u ,
faz er
Qu ando
ofer ta
T am
s á
C r
rei ,
vi da
ta mente
vos sos
ênci a
vo z
a z
de nt
do is
ser vi
c en
lh o
l as
t as,
ou tro
do res
q ü
v or
Jerusal ém
go ,
on de
am a
mi l
nos so
olh os
to m
K K
d ão
im ,
en di
ta l
ç a,
B a
gu n
in a
v as
) :
i ra
Tam bém
des tru
ve z
E du
Edu ar
an da
vos so
3 0
Eduar do:
b al
jus ti
im o
b u
es se
fi car
ç as
to ;
v ar
de pois
an tes
m ul
e di
el h
el ,
. .
esta vam
ele ,
or i
g ou
tu as
シ ニ
シニ ガ
a d
tan to
f un
por ta
ram ,
2 9
mor re
F i
es tes
g re
na ções
povo ,
t á
al e
am or
m ,
as s
in h
ta ndo
í nci
en vi
c re
ci dades
í li
A b
c os
+ 55
: 3
ba ix
sa be
se te
ser vo
ser vos
so l
ó ria
en de
peran te
do ;
mul ti
for me
s es
) ;
ou tra
ago ra
f u
mo n
a qui
que le
su b
an o
pe d
ei ra
Res pondeu
S al
s enhor
tor n
Sa ul
vei o
ar ,
g em
íri to
est as
tr ês
- lo
par te
sem pre
[ 4/
p ou
E le
O S
Qu e
bo ca
k k
ra i
ser ão
f ra
o fe
ta do
con forme
mui to
pa re
no i
fo go
- o
Senhor ;
qu ais
in do
vós ,
es cri
N o
h am
al tar
o l
ti ,
com i
el o
mim ,
tenh o
3 5
sa í
tr os
c ê
C o
be ,
c al
per gun
f im
com er
guar da
pr ínci
J ac
man da
n enh
t endo
Jac ó
p ô
fo ra
i as,
pa is
3 3
com p
a f
a .
pr os
f am
ir á
Israel .
b en
c em
f ala
mo do
va ,
De pois
i f
mã os
g era
m er
n g
por quanto
te .
E li
b ro
de ser
in im
ção .
i l
F a
da .
cam po
p li
as ;
5 /
de z
terra .
Cr isto
ent es
p ei
b os
à s
: 5
b ri
h ou
ho ,
ven tura
t re
l is
san gue
ão .
b an
s ar
3 4
cois a
m un
ô ni
dos .
in ha
tr ou
Judá ,
i z
l á
í z
l ou
lu z
s in
3 2
: 0
alg um
an os
va i
de n
p ri
c um
B e
t í
S h
l os
ou ro
b as
cé u
v endo
ei ros
jun to
[4/ 4
A S
min a
tar á
am ente
f íci
in guém
tem p
fi cou
b us
n u
v an
co ,
baix o
c ha
car ne
ini ga
tem un
Sh iniga
fam íli
sa cri
L e
pr in
tes temun
te i
Davi ,
R e
at ro
cas a,
an im
ti ra
( Shiniga
al ma
sa ber
es tra
rein o
Qu em
un ci
do u
h os
par ti
f os
na da
su bi
E ,
z er
homem ,
por ém
t é
S i
S A
min has
pa z
das ,
ça .
(Shiniga ):
bi l
s or
ê m
A o
ti ver
vos sas
dent re
gl ória
to ma
qu atro
A A
C on
O u
alg uma
tra ns
ze ram
Na ur
con ti
di rei
ha ver
ho je
orde n
ou ,
pa c
de ram
is to,
ra .
fei to
habi ta
con ta
im ento
p ele
s en
A r
Senhor :
a ch
al ,
con fi
ini qü
le vi
m pi
ti tu
disse ram
n inguém
vos sa
Es p
ás ,
pas sa
un ca
S am
a da
ho lo
holo caus
or ,
ras ,
vin te
Ba bil
p é
re dor
sacerdo te
f ru
le va
Jesus ,
res pondeu
tom ou
he ran
rem os
i am
i as
ofe re
f es
mo nte
ir mão
tra bal
á r
ç ou
G i
cin co
g as
tos .
Jerusal ém,
o ;
í mpi
a i
nos sos
pô s
ar ão
es cu
tin ham
Co mo
car n
fi zeram
P e
fi lis
p en
P elo
ca b
des ,
fa rei
irmã os,
qu ar
cidade ,
j ul
á ri
o bra
ra ó
so la
ves ti
Fa raó
S o
ac ha
p és
ju íz
prim eiro
4 0
con gre
eu ,
ga do
am os
d ro
vo cê
de baixo
i -vos
in ter
ou tros
c ei
co lh
f ará
n um
sacerdo tes
u i
cí pul
eles ,
es pe
gu er
rei .
B en
dis cípul
du z
s us
Egi to,
du as
filh a
mui tos
nenh um
te -
vi r
c ô
se pul
[ 5/
c ó
g an
m ão,
ten s
Fi lho
n ele
tr in
trou x
Deus ;
a ;
res pon
3 6
is te
E R
a jun
pel os
espa da
T u
cabe ça
inim ig
lan ça
cer ca
l em
men to
c r
dos ;
re g
al gu
de la
n unca
o a
pel as
po vos
sacri fíci
tor na
A bra
al guém
bo m
di a,
el as
m ês
mo ra
o i
á rio
ca val
im un
iniqü idade
re en
3 7
filh os,
filis teus
pró p
r os,
lh a
s é
t ão
- a
l í
pres en
A go
G reen
des te
justi ça
p lan
congre ga
cô va
terra ;
🗿 🍷
ten da
tri bo
tu r
= =
anto u
ar ca
ch ei
homens ,
ju deus
[2 8
r ás
se is
M a
di g
l ar
mos tra
ta .
- te,
-lhe :
mã e
un s
🗿🍷 :
E S
ap ós
ci os
f an
pa i,
ram -se
sim ,
T é
Té ran
ap res
in o
j ei
te ;
ão ;
H a
[28 /1
c is
co bri
du ra
envi ou
J or
d é
l im
í do
s endo
A rão
E m
qual quer
vin do
b ar
sa iu
.. .
ca ti
conti go
en der
o vel
ob ras
se i
us ,
- nos
M A
an ci
c â
Esp írito
cor po
diz er
es .
ma i
ram .
ve is
n ú
E n
pro cu
fal ou
r ,
t êm
ti po
Jos u
algu ns
dade ,
i a,
ran do
0 0
a bo
ar ás
c ho
sabe do
sal va
3 9
S im
aque les
d ão,
i do
in te
orde na
su ce
pe di
v ou
: 4
ale g
g ê
á .
-lhes :
di go
ten ta
3 8
a í
cl am
f ro
v ela
â nci
M i
en te,
che ga
ent endi
m ando
t rem
ção ;
deles ,
eiro ,
for ça
g ando
la do
ta ;
tu ,
Sal o
Salo mão
n gu
A n
[5/ 4
a u
an unci
pergun tou
su l
águ as
9 9
an h
Israel ;
a ram
es sa
man h
n ela
en ço
i da
- ei
sem elh
vi lh
con te
do m
go n
p al
pac to
cas as
if (
in t
lo ng
-se ,
A i
esp írito
g e
for ma
á cul
- os
P er
f é
re vela
ti ve
/ /
KK KK
con si
nos sa
es con
lev antou
os o
val e
g en
gê ni
haver á
n or
s enta
ã os
ci a
en quanto
[2 7
ar re
az ei
comi go
cé u,
lo ,
ri a,
T _
ca ,
filh o,
pa is,
prínci pes
ár vor
S u
che fes
g res
p ão
/ 2
anim ais
elh or
l in
me di
mulher es
pou co
san tu
vi eram
Moisés ,
[2 /2
ab enço
de .
en deu
heran ça
sor te
Z e
cum pri
dent ro
fal ar
ia .
irmã os
vi am
am o
ar rai
di as,
nú mer
tro no
A l
E fra
ele .
j um
lí ngu
águ a
an jo
es cre
im os
orde m
ta i
ver gon
an ça
noi te
rei ;
) ,
4 1
pas sar
con se
pre para
v ê
der ram
e ter
es tou
gl ori
olh os,
qu en
sá bi
tan to,
vi u
be ber
ci r
est re
esta tu
na quele
ouvi dos
s anto
sa i
ar ra
dele ,
fu gi
multi dão
ne ces
x a
N e
fa ce
pró x
so mente
verdade ,
Jesus :
a pro
en to,
g os
mim .
que im
que ima
re ti
sa ir
so n
af li
b ul
ce re
cons um
de m
des cen
el a,
no vo
presen ça
se jam
tas .
cham a
jun tamente
ou ro,
so m
G a
Jerusalém .
Jos é
M an
[27 /1
c la
con vos
cor re
12 :
Deus :
Es te
ci do
h um
l a,
ma ra
pei to
Moisés :
j ar
mun do
pos su
ros to
san ti
ú l
ab ri
gu e,
4 2
ce ram
das .
f l
man e
ofer tas
ap ar
c ima
cer á
coração ,
de lo
di to
do ze
ele :
en con
hou ve
re ban
ô n
Israel :
L M
Pa i
cham ou
faz endo
gra ça
mando u
qü enta
ta le
z ar
ções ,
gran des
men te,
cin qüenta
da li
g ia
ouvi r
vin ha
-me ,
al ta
da ;
f ur
fi r
fo me
pas s
ro .
sabedo ria
sá ba
í vel
4 8
Pa ul
a conte
ei ,
es ;
fer i
in cen
l ,
sacerdo te,
Cr isto,
[2 4/
a cerca
en sa
is .
mai or
n ta
per segu
povo .
8 ]
Ben jam
D i
Je o
an ti
fro nte
res ,
Jo a
ben ig
des pre
disseram :
es colh
exérci tos
h ar
l é
mui tas
ter c
- á
5 0
Le van
c imento
cir c
da do
si do
us a
b ran
p ó
pra ta
sa b
ç os
ôni a,
9 ]
cas o
manda m
ra ;
se ri
sen ão
trin ta
ç am
í s
I A
al ém
ca ir
edi fica
entra r
estra ng
for tale
is ti
tem os
va .
Egi to
c ando
c entos
co l
levi tas
númer o
tr ás
an a
esta ndo
o bo
ta rei
di o
h i
incen so
m elhor
n ácul
pe quen
pli ca
prim o
quar enta
M oa
N i
Naur :
es c
nós ,
ou ve
per mane
reis ,
tar ão
ú s
4 3
ber nácul
bro n
faz e
g or
min is
rein ou
ta bernácul
C om
e g
ho n
n de
p is
6 ]
che gar
cé us
ens in
g ri
t imo
torn ou
z ,
4 9
LM OS
SA LMOS
Sam u
anci ãos
go ver
peca do
sa g
tan te
( Naur
3 ]
4 ]
Is so
S em
as te
liv ro
mulher ,
ti .
Babil ôn
R a
ab un
da rá
destru i
ent os,
profe ta
pu ri
Babil ônia,
a gra
benig ni
come çou
ex p
mes ma
ra rá
" O
(Naur ):
G ui
Je rem
Man ass
an i
cl ama
con tin
deser to
fl or
le a
por tas
pro ce
su r
sub ir
ç o,
Manass és
a pr
c res
d inh
destru í
discípul os
ha viam
pe da
prin ci
so is
v enh
D es
I C
am ento
an g
che gou
rem ,
s t
te ve
tra z
í p
4 4
4 6
7 ]
P o
T ER
cere ais
contin u
dar y
des po
descen d
man eira
profe ti
tan tes
un i
vi v
AA AA
Es ta
Gui dary
Jacó ,
M e
] :
ci o
co .
da rei
eg íp
filh as
ir os
mi seri
n uma
prínci pe
re b
to mar
v isto
a cam
co ber
fa ça
g ir
i go
mor tos
por ventura
Ago ra,
Josu é
ba ti
ped ras
ri que
santu ário
tri bu
! "
- la
A inda
E L
am ar
ca í
escri to
exérci to
fer iu
p l
primo gêni
vergon ha
vez es
To da
b ele
es peran
ha vendo
nome ,
per do
" ,
- no
abo mina
cer tamente
diz e
eles .
fiz este
que les
t im
vi da,
J a
M as,
bo a
deix a
g ente
h os,
j os
ma dei
manh ã
pa de
qui as,
vin ho
As s
I sa
M ar
T i
con ver
des vi
ent rou
es ca
f in
m is
que i
tenh a
testemun ho
2 ]
I AS
[ 1
c endo
congrega ção
da n
espa da,
in cl
lo go
morre u
na ção
p ens
ç as,
/ 12
ca i
des ta
deus es
es que
levan ta
nações ,
profe tas
pros titu
á -lo
E ze
I I
es ses
fos se
isso ,
re go
sa ú
tí s
Por tanto
dis so
pro v
que bra
ri o,
trans gres
7 :
C a
Gi lea
V i
c ria
cas ti
dor ,
in dig
m el
men sag
mo delo
sus ci
temp lo
comp anh
lou vor
na ,
orden ou
respondeu :
um ,
- los
Qu anto
cul pa
en via
famíli a
fru to
gu ra
pra ti
sa gra
semelh ante
á tri
a pare
de nte
g er
pele ja
próp rio
ran te
re pre
se ram
ti ;
4 5
A bi
Abra ão
D L
DL N
L o
Ni an
Nian ir
V DLN
as sem
caminho ,
ch u
có r
esp íri
h ei
hou ver
k en
mês ,
nenh uma
qu in
subi u
ênci a,
E les
I S
Por ventura
Saul ,
To do
al mente
b or
be de
cham ado
che fe
fun di
g ens
m as,
meu ,
mon tes
sacerdo tes,
ti ves
v ento
ú ni
- 7
Ar ão,
a i,
de cla
dores ,
fi ci
g el
pe re
tís sim
VDLN 7:
al .
c ru
de se
jus to
lev ou
mar ,
miseri cór
mor te
re gi
rece be
ti rou
vi ve
vós .
ç ar
ado r
de vo
fiz er
h as,
po bre
servos ,
ta is
T em
con ce
descend ência
encon tro
estra n
f re
fun da
lugar .
mã os,
próp ria
ra do
res peito
s ,
tro m
4 7
V o
[1 /1
a pa
ad ver
al to
casa .
dele .
diz ia
far ás
peca do,
res to
ter á
vi ver
19 :
Be te-
Samu el
am ,
cati v
da quele
j as
r en
ra ram
sempre .
ã es
P ar
a ju
car re
conhe ce
ei ros,
la v
ma tou
nos sas
ou tr
p las
p us
ru b
ter mo
1 ]
Levan ta
a diante
aque la
mim ;
ped ra
trom be
vo nta
í ria
" :
- o,
5 9
cois as,
en ch
for te
gover na
long e
lá bi
ovel has
per ver
qu is
ro m
ser va
tar ás
v as,
B ala
C or
J ô
Jô na
To dos
al can
an os,
bus ca
c im
co lher
dinh eiro
es pi
exérci tos,
fica ram
holocaus to
i d
i dades
justi ça,
m é
ma u
neces si
ofere cer
rego zi
servo ,
vi rá
A mostra
c el
c á
des can
fa vor
l am
servi ço
ta va
tar ,
tas ;
A sa
N T
deles .
f (
re jei
ro ;
so mos
ã .
[ 3
ba ta
en contra
esta bele
h er
inimig os
kk kk
pes so
senhor ,
ter min
troux e
v ens
T endo
[3 /1
cu jo
deser to,
edi ficar
entre gou
est ende
ig re
lem bra
mon tan
ofe rece
povo ;
pra ta,
reb el
tu ra,
us ar
) .
- >
N ab
Por quanto
bem ,
circ un
com pra
gu ei
in e
ir ,
lei ,
qui as
vol tou
18 :4
31 /
Res pon
[ 31/
ago ra,
apro x
dade .
de ;
ho ra
man if
pe ra
re f
te ri
ten des
trabal ho
ves tes
Efra im
Por tanto,
[31/ 3
a ta
ang ús
angús ti
ar ma
b li
ent es,
ne g
ou -se
ouvi u
per ten
va ra
van gel
í mi
Egi to.
G e
P ro
S anto
ca pi
da ndo
em ,
esp al
for mos
terc eiro
ânci a
5 ]
Ab sal
a cab
col un
conhe cimento
e vangel
en gan
er o
plas ma
torn ar
6 1
A ca
Es tes
Pe dro
Per gun
ac ei
aleg ria
am as
cor de
ex pul
ha ja
ir mão,
língu a
r in
ra z
v ão
8 6
Ago ra
[2 5/
co ra
con tudo
gen ti
i lh
ia ;
me i
pas tor
pu seram
vol ta
ões ,
- 0
E saú
U m
a ca
an dar
cí pi
dis ser
fiz era
fo go,
o ci
ser ás
tos ;
águ a,
C er
ar .
de ra
despre z
direi ta
habi tantes
nome .
palav ra,
prin cípi
ram ;
ri b
te x
val or
voz ,
õ e
B el
E l
Jer obo
N aquele
Pa i,
Pa ra
Respondeu -lhe
bo ra
c os,
d um
de li
faz em
pos ses
pos to
pre cis
re mo
sé timo
vi ol
vol tar
as sola
c ento
cu r
entre ga
fal e
homens .
lugar ,
man ce
o ra
qu ími
sacrifíci o
se me
to tal
vo ca
á ;
-7 7
carn e,
cu ida
dei ro
entra da
is t
mara vilh
palavras ,
ram ente
so ber
tei ro
vida .
? "
B em
D ei
disse -lhes:
f r
fica do
gra ças
no ,
poder os
ri os
si cl
suce deu
u co
A m
Jor dão,
esta r
far i
men ti
mesmo ,
nu vem
se rei
t h
vo ,
z a,
E U
Ou vi
Paul o
Z a
a ção
benigni dade
bron ze
campo ,
comp le
con ten
des se
du zi
ex trem
lugar es
mora dores
n este
o ração
pe reg
pos i
ta vam
tro pe
ções .
í ni
ímpi os
- -
21 :
Abra ão,
Jor dão
V ós
a trás
ale gra
amo ni
ar es
ass enta
ca iu
ca ra
co lo
de sola
di as.
ent os.
fur or
ju ram
jul ga
mal ,
no vilh
ou vindo
ter mina
adver sá
altar ,
cidade .
coração .
cí fi
d ê
diz em
en g
f esta
famíli as
gera ção
ia ção
mal di
om ,
per to
tes .
un gi
v eu
ári o,
-a ventura
C he
IA ]:
MA TER
MATER IA]:
Qu al
S an
[ MATERIA]:
au tor
bas e
cons titu
cor r
d :
de f
g am
juíz o
para m
que la
s um
t um
ter r
tra zer
troux eram
vi ram
A h
Isa que
Jos é,
R O
er ,
es sas
esc ra
madei ra
morre r
mun do,
no mes
pro fan
saí ram
ta dos
tom ando
A cabe
Joa be
[24/ 3
circun cis
con os
de fronte
des ceu
dé c
mes mos
p ás
regi ão
reis .
rique z
san gue,
so be
â m
2 :
B as
C ana
Eli as
Gi be
T a
al dei
ca .
che gando
conse lho
consi go
das ;
di m
do nos
er va
gar á
guer ra
princi pais
0 9
Jeo ia
Vo cê
a ves
b res
com prim
edi ficou
ele ;
eles ;
fan tas
n ti
pai .
per fei
se tenta
tes ou
ti do
tra s
tá bu
0 ]
Disse -lhe
Faraó ,
Je os
a di
abun d
arrai al
b a,
b ens
ca do
d: :
en er
g ni
guar dar
j a,
levan tando
men os
mã e,
o bede
pa ter
pas sou
per mi
pr is
pro va
ri as
sacrifíci os
tu ras
u ra
ve ,
vis ta
í as,
8 7
A té
D o
F o
Nab uco
Nabuco donos
convos co
da i
ger ou
ins ensa
levi tas,
men to,
pi e
sin al
t rein
tem or
tri bos
Sal om
T or
al o
amor re
camin hos
con so
cu ra
côva dos
de ve
em os
en vergonha
ent ão,
ex e
fari seus
misericór dia
noi te,
que rub
r os.
st d::
ão :
# #
H an
Jeos af
Respon deram
ar ran
as se
car ros
chega ram
deix ou
escolh i
idade ,
rece ber
rei :
sa bi
segu i
tives se
árvor e
L í
Moa be
ab er
b os,
en tou
ens ina
es quer
i-vos ,
lev ar
lo m
mar i
mor te,
tempo ,
tu do,
v y
ê n
":  
E M
P i
Salom ão,
a rei
as e
c us
cativ eiro
comi go,
confi r
conse lh
deles ;
destru ir
en fer
homem .
inim igo
n é
p ães
perguntou :
pos s
pró pri
rece b
s ão,
ta li
ti rar
venh a
vi ú
B ar
Benjam im
Po der
Ra vy
Ravy :
cer to
con f
es tiver
exe cu
in ho
leva ram
li ber
ori ente
par á
per i
pre cei
prim eira
procu ra
qu inh
qui ser
18 :5
A quele
D ani
H o
To ma
ci da
conhe cer
da dos
disse -lhe:
exp iação
ficar á
i gu
l os,
m os,
ma tar
me ta
ouvi do
per ce
pra ga
pu bli
res susci
se reis
so b
sum o
vem os
á ci
9 8
Benjam im,
Cristo .
Josu é,
O N
O nde
R E
T_ p
Z i
a bi
ach ou
al tura
an o,
assem b
c as,
cam p
de mais
di do
el em
en da
esperan ça
esta is
fi cam
g a,
ga do,
i ra,
im ele
ir ão
liv ra
oi to
outra s
pre cios
se para
to car
vonta de
vós ;
zi as,
ás .
átri o
-se -á
Ass íria
Babilôn ia
Judá .
[4/ 2
ando ,
arra bal
b rio
ch or
di re
di rá
en tar
gu i
lan çou
ma g
mulher es,
próx im
t is
te me
vis i
âm pa
ã ;
G u
M al
cal deus
con sola
den tes
des peda
evangel ho
l âmpa
mão .
pás co
qu an
servi r
sin ais
v entre
Ele az
Jerusalém ;
M es
aca ba
boca ,
ci ência
em bora
es tive
in ten
ins ,
lar gura
lin ho
ma taram
mal .
men ino
multi pli
ou vis
por ei
pos sa
prin t
pro me
res tante
t ó
tre vas
z e,
á ria
á vel
- ão
5 1
Egi to;
Le vi
Q U
Téran :
c ele
c ro
cabe ças
casa ;
come ça
de las
des tas
des tes
diz iam
el é
esta rá
fu i
habi tar
levan taram
os sos
pa cífi
pare cer
print f(
próx imo
re po
se rem
tabernácul o
vam os
0 ;
5 7
ado .
al tos
caval os
conti go,
dem ôni
diz :
endi to
espe ci
f le
f í
gar o
judeus ,
las f
lh os
lim i
ou .
ren o
saber ,
té rio
vam ,
á ti
íri a,
A caso
Eli seu
Jesus .
Pergun tou
a do,
a tra
al mas
após to
aí as,
d ro,
el os
liv re
men in
olh a
parti u
puri fica
res sur
ti vo
tra n
vi z
-te -ei
15 :
18 :
Davi :
I OS
Jerem ias,
L em
M o
\ n
ab ando
c ente
di am
di rás
esp an
est ás
habi tam
inter mé
le o
mandam entos
mensag eiros
multi plica
respon der
revela ção,
se ,
se ria
ti l
us o
árvor es
íci a
-vos ,
21 :3
Be te
EM IAS
IC AS
M er
Manassés ,
R ú
Rú ben
Senhor ?
Toda via
[24/ 12
ando -se
ar ro
be be
can an
des fale
des per
dia .
dom íni
déc imo
ent as
est endi
guer ra,
hon ra
i ]
k ens
levan tar
nu vens
o prim
pa rece
pais .
pe car
pei x
persegu i
ras te
reban ho
ses senta
ve re
. t
Davi .
E la
Eze quias
amente .
ap as
b lasf
bra ço
ca pa
con sul
direi to
entra ram
iniqüidade ,
inter pre
li ga
lim po
n as,
n os,
olh os.
p ós
p ú
profe tas,
quar to
ref ú
refú gi
sa bem
sub s
va ;
18 :0
5 2
Deus ?
Sam ária
acam param
ará ,
ca dá
cadá ver
cl amor
câ ma
da queles
deix ar
dizia :
do m,
entes .
far inha
g al
gor dura
ima gem
lábi os
manh ã,
mor te.
n da
no vi
o fici
o pró
p õe
par ou
pe ço
ram os
si ca
tri go
v est
águ as,
ímpi o
14 8
5 4
C R
E x
He bro
P as
apare ceu
az ul
azei te
azei te,
cabe ça,
co bre
com pade
d uma
de ia
de sa
dis s
el .
en as
entendi mento
espe ra
fei to,
fo ra,
ga ram
inimig os,
intermé dio
ma d
meta de
mi lh
n ar
nós .
o cul
p ão,
pai x
per pé
pes o
poder á
pro mes
sabe is
segu iu
sol ,
som bra
ta do,
te ra
toma ram
tr iste
vi a,
+ +
-77 59
-7759 :
50 -7759:
99 50-7759:
Ba al
Cer tamente
D O
F ala
G ali
Je ú
Moa be,
Pois ,
Por que,
[2 9
alma ,
aqui ,
camin hos,
cor tin
discípul os,
ela .
entre gar
filisteus ,
hi dro
mu ro
na .
por tanto
re za
ro cha
sempre ;
tens íli
ti fica
torn ará
u tensíli
var ão
17 :3
7 3
