o s
d e
r a
t e
q u
r e
qu e
d a
i s
t a
m e
m a
i n
c a
p a
i a
l e
u s
l h
o n
o ,
l a
p e
v e
v a
d os
c e
pa ra
S e
c on
r á
Se n
Sen h
Senh o
Senho r
b e
o is
de s
g a
me n
f a
i lh
re s
z e
t ra
f e
lh e
o .
D e
é m
in h
f ilh
v os
i da
ç a
qu a
is s
o ra
te s
c h
r ra
ç ã
b a
d ia
De us
t os
t ã
inh a
te n
o ;
m ã
i ta
r ia
p ois
u ma
os ,
b re
le s
i ra
i ca
iss e
r ã
r ta
o bre
i ,
/ 4
I s
te rra
o :
m os
J e
s obre
t re
r que
o rque
ó s
u ra
j a
i ze
r n
n tã
d isse
qua n
o da
Is ra
Isra e
Israe l
ntã o
t o,
filh os
g e
in a
o dos
ma n
rã o
g ra
ida de
b ém
m bém
t odos
- s
p re
1 0
te ,
-s e
c ia
p orque
M a
d o,
u ,
t oda
us a
t á
7 :
b ra
Senhor ,
d o:
rá s
n tre
o fe
m inha
õ e
a os
- lhe
E ntão
1 2
Q u
e les
r da
S a
con tra
p ra
f ica
õe s
ta mbém
ch a
z a
me s
d ize
é s
v ra
ch e
r re
v ia
1 4
i e
l ta
o a
vos s
1 8
o men
i x
i ga
o rta
ve n
A s
o ca
v ós
pois ,
s tá
K K
con s
e ntre
e stá
1 5
1 9
la vra
le va
la s
va m
p on
pa r
re is
re ce
D a
te us
pa lavra
n tes
1 6
1 3
[ 8
d á
[8 /4
pa s
Ma s
omen s
h omens
N ã
fa ze
ce n
ç ões
ois a
c oisa
que m
o res
Nã o
de r
f ora
rn a
V D
L N
VD LN
VDLN 7:
H e
) :
Je s
シ ニ
シニ ガ
i tos
p res
gra n
i fica
As s
r mã
j e
r ém
o rém
l ém
o rre
in da
i rmã
[ 2
Jes us
p orém
i .
t ura
Deus ,
- me
n do:
ita s
qua l
Da v
S h
dize ndo:
u ga
Sh in
r is
N a
pon de
u lhe
t inha
R e
Je r
Shin iga
m ulhe
( Shiniga
dia s
c idade
pe ra
m on
(Shiniga ):
ve s
B e
c ora
1 :
toda s
l uga
d o.
e ja
P e
Ass i
t o.
p orta
Assi m
pas s
gran de
P a
s tes
Qu e
j us
B a
r on
M B
r do:
a rdo:
u ardo:
d uardo:
E duardo:
çã o,
i dos
p :
s eja
g ora
a inda
He a
Hea p:
u dá
fe z
J udá
disse :
luga r
M ois
Mois és
Qu a
k k
be n
i men
mes m
usa lém
Israel ,
Jer usalém
ê s
de les
d ã
te .
coisa s
+ 5
rn e
+5 5
f ize
a via
le ,
l ia
i me
ofe rta
P ois
[ 10
ix a
[10 /4
h avia
T a
me us
v ida
pe ca
r ma
O ra
J a
Senhor .
fora m
j á
n ós
porém ,
i ;
r ofe
a ma
e ce
O s
v o,
mulhe r
con h
p rofe
1 7:
i to,
ca r
ca usa
Qua n
P orque
ponde u
l á
-lhe s
c la
t ira
o rna
m ina
Ora ,
2 1:
a rda
ten h
u arda
ça s
a lta
u ém
ô n
g uém
pass a
i o,
E is
i ã
faze r
o u,
p í
jus t
KK KK
- te
o bra
in s
M e
rda de
E g
i za
ve i
pí r
s pír
voss a
g uarda
mesm o
ca rne
e ntão
ve l
terra ,
pera n
d ores
palavra s
m orre
é ,
pa is
s tã
a gora
- vos
ta vam
us e
o lta
c í
ó ria
ve rdade
des de
T e
z ia
ba n
che ga
Re s
stã o
c os
d ois
filh a
Deus .
t orna
J os
D isse
d o;
o der
m pre
18 :
e stão
pa da
ta l
re i,
cha ma
voss os
pres e
dos ,
o be
C ris
a ções
g o,
de i
ve m
u ve
q ü
1 ]
me lh
ça ,
l is
de pois
in t
Quan d
Quand o
= =
Ta mbém
te i
r quan
o rquan
o vo,
s ina
pa i
19 :
o je
m í
7 ]
a pa
u tra
l va
- n
orquan t
orquant o
voss o
r ime
m -se
çã o.
spír i
s tavam
t í
) ;
e stavam
p oder
â n
o uve
man da
o utra
p rime
v olta
d ra
de ixa
prese n
profe ta
r vos
p ovo,
a cha
n ações
le v
f ra
b s
imen t
s pada
e rvos
e spada
ga r
Sa u
ix o
ge m
o tes
r des
f í
i pe
ten da
r ês
v ie
i va
s ervos
spíri t
con ta
peran te
e mpre
par te
e le,
u x
ten de
[ 4
rã o,
b oca
just i
Sau l
vei o
l oca
[ 5
s empre
t rês
r os,
spírit o
O S
Res pondeu
res s
i dã
tenh o
L e
l ica
e rão
s erão
ge ra
man d
ven tura
Senhor ;
qua is
o ria
d ura
fize ra
vós ,
p ã
ilh a
iment o
mand o
c ipe
t i,
r o.
i be
n cipe
í ncipe
r íncipe
ma ta
- a
alta r
be ,
p ô
/ 2
d otes
r dotes
ce rdotes
a cerdotes
s acerdotes
in e
p ríncipe
m á
Ja c
le .
Jac ó
o x
cons e
lia s
G re
Israel .
Gre e
Gree n
ta ra
🗿 🍷
p orquanto
m ia
ta d
l ória
pa n
u la
g uma
l guma
cí p
é ia
rá ,
🗿🍷 :
[5 /4
a lguma
ten ta
tad o
terra .
g lória
o rma
h oje
o loca
à s
in guém
disse ra
os o
conh ece
fí c
c ura
que les
pe dra
conh e
Judá ,
o lhe
d on
C on
tes te
ce u
a lva
c ria
de l
s tra
a men
ie l
A S
v ira
c o,
i on
[4 /4
ofe rece
Eg i
i os,
i la
mã e
ba ixo
i que
prime i
Be n
d ifica
p lica
u itos
rá .
teste m
fa mí
c itos
m bra
i do,
testem u
testemu n
testemun h
m ora
r citos
é rcitos
x ércitos
men tos
s alva
Que m
ôn ia
Dav i,
e xércitos
i fíc
c orre
t ia
che fe
qua t
minha s
man h
t ron
ie n
o ã
f (
re ga
r -se
e stra
E ,
o mã
p ós
A A
r tos
pra ta
n inguém
ça .
Na u
quat r
b ia
i ba
vossa s
primei r
de ntre
r ventura
o rventura
Nau r
u ce
ta m
i rás
m uitos
e ira
qu is
u lta
ten s
c olhe
le a
de z
tra ba
dissera m
g ura
tara m
t idã
qu ia
v idos
i qü
Senhor :
in iqü
h ouve
g ia
u ida
k e
l on
l ônia
quatr o
u ta
traba lh
l guém
l ga
i lônia
e difica
b ilônia
h oloca
holoca us
o vos
Ba bilônia
i go,
e las
l omã
Sa lomã
fizera m
da de
Jesus ,
r ifica
A ca
c is
Pe l
s on
p o,
me d
a lguém
use s
16 :
u vidos
mulhe res
15 :
ta be
o uvidos
Jerusalém ,
ge i
- 4
çã o;
ifíc i
i lis
Cris t
ve is
Pel o
g rega
pô s
tinha m
n via
estra n
a ze
s pe
é ra
o te,
f ilis
cidade ,
de ia
irmã os,
- e
a pe
ra ó
r io,
a raó
re i.
p és
F araó
obra s
pres s
dos .
f orma
o ux
r oux
12 :
f re
is .
- á
Z e
/ 12
res pondeu
de baixo
eles ,
E S
cia ,
T éra
Téra n
t ica
manh ã
is cíp
pa re
roux e
d iscíp
n quan
E R
discíp u
discípu l
ca t
f ia
mos tra
nquan t
nquant o
Eg ito,
quia s
g ê
m ês
A gora
i vra
irmã os
con grega
e nvia
Deus ;
t rouxe
v inha
dia ,
des pe
fa n
c á
is te
í ra
lev itas
m ba
b oa
A L
gê n
Crist o
inh o,
pe las
cen d
o ze
p ovos
s que
príncipe s
A bra
Abra ã
iniqü idade
s ca
filh os,
filis teus
tenh a
in u
t oca
gei r
pre n
v o.
P orta
a ben
Ma n
a pós
terra ;
filha s
ô va
c ôva
men te,
14 6
i mos
qual que
1 1:
qualque r
te rna
homens ,
l ivra
d oria
melh a
[2 8
entre g
p ia
Porta n
r dã
ve la
- te,
-lhe :
g o.
e sque
/ 3
Is s
pa i,
2 146
9 2146
-4 0
92146 -40
92146-40 3
92146-403 5
92146-4035 :
o mina
íra m
de uses
l tidã
u ltidã
m ultidã
i fe
o rtos
re ina
- 0
l ã
iã o
Egi t
vira m
a queles
primeir o
profeta s
fa ce
me te
[28 /
[28/ 1
v ã
KKKK KKKK
V a
dei r
f ron
ú s
cla ma
m ortos
ita ,
ira s
ion a
-n os
da .
i zia
conhe c
cons o
u tos
[ 3
ga d
fe s
e le.
s uce
E spírito
kk kk
é us
pe i
r ifíci
c rifíci
o rdã
Jos u
le ja
be doria
a bedoria
s abedoria
pe leja
- os
s tende
/ /
a crifíci
c éus
re vela
s acrifíci
ke n
Le va
des ta
irmã o
o rda
b á
-lhes :
pe d
n sina
cons t
lh os,
a rre
e melha
s emelha
u -lhe
t u,
des s
e spe
vie ra
deles ,
e sca
o del
g on
gad o
l tura
Sa n
ves s
d izia
o ken
Israel ;
la va
p á
e nquanto
i f(
u lga
que bra
é u,
ida s
o mos
o cura
r ocura
n taram
men ta
e nsina
r ien
re p
ban h
rá ;
e spírito
cat i
te ve
a ba
o gên
ba r
Is a
faze n
de rra
u ia
j ura
e stende
chefe s
m po,
o pe
dos ;
r mina
t rás
Te n
J oa
ntes ,
de .
c éu,
[2 7
a re
h uma
I S
T oda
í ria
filh o,
pais ,
T _
gran des
pe que
che g
ece s
te rmina
p rocura
gon h
J ordã
pã o
o mes
ça ;
i cia
ve ze
veze s
viera m
aze i
melh o
ç oa
pa rece
[2 /2
des p
eces s
o lhos,
) ,
t iza
Moisés ,
fize s
iss o,
h ora
ba l
dias ,
v oca
te me
de ira
m pra
í vel
G e
r ve
C e
mes ma
r gonh
E fra
tra ze
ve rgonh
ó x
s obe
cen tos
ix e
n ecess
r óx
Iss o
d oze
g ress
cen s
j ulga
p róx
p orventura
oferta s
n ças
le :
rã o.
n idade
pre para
de le,
mia s
te ra
verdade ,
i o;
r y
le ;
pei t
próx i
ve rna
za s
la .
melho r
o rien
iel ,
Jesus :
con fia
famí lias
i do.
Pe r
con d
i u,
der r
c iona
u itas
qü e
[27 /
ves tes
apa rece
A rão
is ;
ma da
con vos
[27/ 1
semelha n
f á
Efra i
Efrai m
Jos é
Jerusalém .
A T
qüe n
Deus :
in cens
o vo.
o que
7 /4
ra v
[ 7/4
cora ção,
presen ça
Moisés :
" :
ce rta
za r
fazen d
e le:
fazend o
r deir
rra ia
a rraia
mon tes
ma t
qüen ta
re banh
mando u
r man
u re
v o;
Israel :
con de
-e i
i ê
iê n
h on
f orta
Pe d
in qüenta
m odel
AL M
pedra s
17: 3
p ria
-se ,
c inqüenta
d ote,
á ba
ox i
g o;
n con
s ába
m uitas
dess e
discípul os
-me ,
me l
r dote,
e ncon
ce rdote,
a cerdote,
s acerdote,
Pa u
Pau l
[ O
[2 4
p ovo.
o mpra
l ina
Cris to,
quis e
s omen
Ben ja
Benja m
Benjam i
Benjami m
Salomã o
pan h
ben i
r oda
beni g
tes ,
vess e
disseram :
carne i
Ba a
j os
ó pria
pe rman
r ópria
p rópria
me t
i cos
ca rre
" ,
7 7
arraia l
peque n
vergonh a
des cend
man eira
b ron
o rra
entre ga
rn á
forta le
fron te
19: 3
c o.
n che
fa r
iã os
m panh
c iãos
Ped r
n ciãos
a nciãos
g uia
ntã o,
a lém
v ores
-vos ,
t inu
lon ge
m para
r oxi
p roxi
uida ry
t ores
qua re
us c
r gura
pre cis
o mpanh
G uidary
quare n
rná c
quaren ta
rnác u
próxi m
amen te
manda mentos
M oa
des a
reis ,
c ompanh
somen te
famí lia
Naur :
cla m
nós ,
f on
b oã
tabe rnácu
tabernácu l
a pren
ú n
le ce
o boã
bron ze
o u-lhe
Egit o
b omina
de cla
re ja
c ompra
encon t
Man a
seja m
s és
- la
a te
ch u
a bomina
con tinu
S ALM
SALM OS
multidã o
mulher ,
s ois
o rdeir
( Naur
t i.
I n
des via
ç o,
t iga
ce le
Je re
d inh
s te,
peit o
e nche
Babilônia ,
21: 0
n uma
da ;
(Naur ):
Jere mias
Mana s
o bs
a presen
g os,
14 8
A inda
d oa
Manas sés
dinh e
dinhe i
o mete
ven h
havia m
i lea
AA AA
ula r
le mbra
descend ê
descendê n
tre va
suce de
le que
u vem
treva s
ça ra
] :
Jacó ,
dores ,
Agora ,
E ze
r ique
te ce
E L
m be
benig nidade
m ogên
c obe
F e
Mas ,
tí s
8 148
8148 -0
8148-0 3
8148-03 5
8148-035 2
8148-0352 :
n huma
e nhuma
Josu é
vida ,
m -n
lev o
K ]
desp o
i mogên
[O K]
r imogên
encont r
p rimogên
18: 5
u rifica
- >
le gra
J oã
dinhei r
o verna
cheg o
s peran
e speran
pa de
ponde ra
eles .
c ie
p urifica
g overna
hon ra
certa men
certamen te
t utos
holocaus t
quias ,
la ra
i ja
chego u
c lina
ça m
O n
i vesse
te x
o go,
morre u
Me s
l tos
congrega çã
ta tutos
s tatutos
e statutos
I AS
s colhe
espada ,
17: 5
n tado
Isa que
l éia
pe re
mos .
ba ta
levo u
c orta
nações ,
de c
g ria
I I
m idade
le gria
a legria
s gress
n sgress
os os
iên cia
tra nsgress
n enhuma
Portan t
Portant o
imen to,
b ora
m inho,
f ique
pondera m
tís s
G ilea
fizes te
o mba
E lias
ilha s
gra ças
deia s
derra ma
use ra
is c
ma g
t ris
r fe
congregaçã o
venh a
clam o
press a
pra tica
respondeu :
21: 4
i ria
t is
a ltura
semelhan te
tos .
tron o
Sa má
Quan t
Quant o
o des
N ia
inh os,
m ica
ge r
r ina
E les
Nia n
Nian i
Niani r
ça r
geir os
p o.
i plica
t iplica
l tiplica
u ltiplica
P orventura
fa rás
n contra
0 7:
tíss i
ca minho,
t ivesse
c ordeir
u ja
Ass íria
rve r
mês ,
i rma
le i,
just o
pra ga
ch ora
e scolhe
perman ece
Saul ,
i ção,
sacerdotes ,
18: 4
os ?
e ncontra
a legra
r doa
carnei r
M AT
A rão,
men te.
p las
e ve
fes ta
o vo;
ma rav
t oken
n çã
ma .
vós .
chama d
chamad o
p obre
o ia
rã o;
ra .
v ora
p usera
pe rece
f irma
profe tiza
estran h
trabalh a
bs a
m igo,
E stes
l iga
in os
mes a
v on
x tre
e xtre
descendên cia
9 8
i go.
de le.
18: 0
lugar .
peca do,
von ta
o tal
s in
ca ,
14 :
r vo,
Samá ria
sempre .
servos ,
coisas ,
rás ,
l te
pe rdoa
m ultiplica
a cen
res peito
decla ra
fa lta
21: 3
u ntaram
a ves
man a
u ze
fa v
i reis
ve ja
) .
Ba la
p ulta
o mbe
r ombe
t rombe
ma deira
ped i
houve r
l iza
s tabe
- o,
â ma
porta n
fav o
precis a
lá b
T odos
cati vei
model o
c oa
ta t
te rá
c âma
pe rver
J ôn
Jôn a
Jôna ta
Jônata s
s omos
A mostra
justi ça,
exércitos ,
Na que
b on
b ox
e rvo,
s ervo,
holocaust o
la rgura
agora ,
testemunh a
fe n
b ois
[2 5
Pa ra
o á
r ope
e pulta
s epulta
a trás
entreg o
m ine
testemunh o
me a
o rne
re je
deles .
a ja
ca ba
son h
t ina
ven s
te ja
trombe ta
chu va
vã o
entreg u
entregu e
prata ,
a mon
gera ções
ria m
o _
las s
câma ra
e stabe
p ovo;
n vergonha
Baa l
[3 /
[3/ 1
P orquanto
Na b
c uida
irmã o,
rra n
e terna
c uta
man ife
cen ta
r ge
vonta de
[3 1
fica r
u bs
aben çoa
luga res
ús tia
g ústia
[31 /3
n gústia
a ngústia
obs e
g reja
i greja
a proxi
- 77
fan ta
Portan to,
f ã
e le;
bra n
r to.
s ubs
manife s
h aja
c ân
Per g
r tes
c orda
morre r
Egi to.
o gra
de re
c ra
entrego u
t otal
nçã o
h os
A bsa
Absa lã
a ltos
ida ,
A h
b n
a íram
ões ,
des .
s aíram
láb i
A R
pusera m
Gilea de
Toda via
a bia
r int
pe rda
i -me
l dade
fa zia
[ 6
ta .
e nvergonha
s tat
de vora
12 ]
Abraã o
t d
trabalh o
o cha
Be m
1 MB
a caba
cativei r
pe rfe
f ogo,
Te m
in cíp
r incíp
17: 4
palavra ,
m orra
qu í
m ória
p rincíp
t rope
dinheir o
ça d
Ten d
17: 2
mesm o,
19: 4
ita ntes
b itantes
a bitantes
h abitantes
u do,
+ +
lábi os
p rint
Naque le
i gos,
Jer oboã
reina r
chega ra
ins e
Pa i,
E U
- 3
be ças
çad o
s abia
s teja
favo r
m bora
r te.
o rte.
sacrifíci o
o fan
tenda s
o mando
lugar ,
17: 0
homens .
S ime
ge lh
me ra
faze m
r dura
- ã
mí n
ris e
mos ;
n gelh
r ofan
va ngelh
e vangelh
encontr o
n uvem
c omete
vida .
sobe r
trouxe ra
carne ,
ça da
palavras ,
le ã
la ;
dia m
E lis
c o;
ca beças
obse r
fanta s
con tece
disse -lhes:
dize m
ma rá
i ge
fa rise
p rofan
r ita
g ião
x pia
e xpia
Jordã o,
ca mpo,
C AS
p oca
Qua l
man t
p ie
== ==
pã e
pãe s
me mória
pere g
pá s
altar ,
cidade .
me ia
te rn
V ós
rã o:
p ris
o rdura
g ordura
Tend o
dias .
A ]:
r vores
Abraã o,
ife re
re v
s ível
G L
f le
-a ventura
outra s
c usa
cora ção.
des fa
á rvores
O N
i -vos,
me ta
Téran :
iã o,
pa cí
r pre
n ça.
const i
pre ce
os o,
o ura
r oje
be ra
I A]:
consti t
ER IA]:
constit u
MAT ERIA]:
[ MATERIA]:
s td
d uze
m po.
a gem
i ven
13 :
i go;
leva ra
lh o,
Ba s
n cis
n omes
v iven
u ncis
fantas ma
t omando
c uncis
r cuncis
tris te
tíssi m
in clina
inh o.
f icia
e ntão,
e tenta
s etenta
Jos é,
ca pa
r gia
f ina
G ra
me ;
o pera
lá ,
re ta
i rcuncis
p roje
c ircuncis
re gião
e steja
trouxera m
Perg u
Je oia
c uja
lara m
rique zas
de fronte
[24 /3
Paul o
chega n
ger o
fre n
spír ito,
e gura
s egura
Joa be
che ia
E M
San t
traze r
a che
int o
x alta
: :
g ira
p ura
Pergu n
chegara m
G ibe
u ro.
pa d
de ixo
arre pe
i ções
d ân
r pe
da va
[ 9
pa i.
deixo u
arrepe n
n dân
std ::
u ndân
b undân
inse n
u tei
m iza
eles ;
21: 2
tá b
táb u
tábu a
KKKKKKKK KKKKKKKK
E lea
Je os
re tira
jura men
d iga
9 MB
a bundân
insen s
gero u
d ifere
o mbra
a contece
s ombra
[6 /4
Res ponderam
i mã
sucede u
Faraó ,
mãe ,
p ira
in á
pres a
ben s
oso r
pade ce
ta da
qu i,
u pe
l deias
g s
conta mina
o -a
i ]
don osor
Jeos a
a ldeias
o donosor
c odonosor
u codonosor
Nab ucodonosor
res .
e mbora
m ús
levitas ,
13 ]
1 1]
b je
i tura
A í
terna s
l â
ca la
bata lh
a rá
s conde
e rgia
n ergia
farise us
lass e
pa rá
u rece
ime leque
L í
des ceu
azei te
21: 5
côva dos
Da n
terra s
# #
7 3
g o:
o mín
ga ra
0 MB
Jeosa fá
t udo,
o rtes
a rran
X box
tre ina
ún ica
n ciona
u nciona
incens o
u viram
te mpo,
M ica
mata r
i á
dia .
éia s
r ios,
n elas
b os,
ú va
i úva
f unciona
batalh a
e nergia
e xalta
duze n
r ogra
perver s
d isc
Moa be
T oken
t igo,
J á
usc ita
da dos
de is
ca rta
v iúva
o utei
[9 /4
ta -te,
r ocha
amon itas
o migo,
c omigo,
c iência
On de
carre ga
":  
u menta
o go.
Salomã o,
deles ;
mata ra
o usa
rás .
u mentos
1 .
conde n
n ta-te,
o bje
d o-a
qua s
m igos,
t orne
a tra
tre ze
e la.
ibe i
a iba
s aiba
Pa s
E N
in tei
Ja va
c us
p ron
p rogra
o uviram
Le v
expia çã
obser va
expiaçã o
princíp i
p os,
desta s
disse -lhe:
ôn i
manhã ,
re ,
r io;
r ba
ú ,
e reis
s ereis
ra í
rdes ,
r ibei
e sconde
chegan d
chegand o
o ficia
print f(
tex t
Benjamim ,
T_ p
-á s
Josu é,
11: 3
Cris to.
e ntado
vós ;
s entado
mulheres ,
Q U
estran geir
pe le
b orda
tira r
r iga
o me;
pací fica
te ?
zar ,
rra bal
a rrabal
esque rda
[4 /2
t ória
d irás
Judá .
Jer i
u ltura
manda men
ve ntre
boa s
iva s
fa rta
ribei r
in do,
S imã
lâ m
pás coa
tra z
De ixa
met r
derr u
omes s
despe da
des tes
" );
12: 2
D ize
16: 5
conhec imento
19: 2
está s
g ó
i co,
3 MB
f ú
e gó
v o:
egó c
levara m
bera m
ten der
18: 3
l ores
boca ,
Jerusalém ;
ins ,
\ n
I N
b ira
5 MB
2 MB
-ã o
x ce
n egóc
progra ma
quas e
matara m
Pergun t
m n
pon d
abomina ções
dizia m
cria r
i çoa
Egit o;
pe ç
quise r
gar o
be i
u bira
ubira m
con tigo,
insens a
gira m
os sível
Elis e
u vens
l ular
tabernácul o
necess ita
toca n
Aca s
o mpre
ma gem
men tira
l us
edifica r
ma ldade
r oa
D á
r i,
n çado
p ossível
ce lular
Acas o
pa ternas
tábua s
n hos
tre me
a me
z ija
o zija
governa d
g ozija
governad o
governado r
ban don
a bandon
p o;
fa lava
x termina
após t
apóst o
apósto l
ress u
u cos
morre us
a morreus
Jesus .
I OS
imen to.
vam ,
pais .
u las
C R
upe r
Sant o
a fa
te rpre
in terpre
quí mica
qu ém
espe cia
a geiros
s ageiros
men sageiros
n orma
P oder
o voca
r ovoca
p rovoca
revela ção,
primogên i
Jeremias ,
n do;
fe cha
o gia
1 7]
Senhor ?
R ú
Rú ben
i magem
l ogia
e xtermina
n uvens
b ina
d omín
EM IAS
prece itos
meta de
I CAS
pie dade
s iste
ve res
r-se -á
cora ções
Manassés ,
Me ta
o ita
d omina
f é,
guarda s
[24 /12
i gia
@ ⁨
14 ]
D ã
a pas
c rifica
b las
rra s
re fú
refú g
éias ,
fon te
15: 5
companh e
companhe i
iniqüidade ,
profetas ,
n ifica
be ça,
toca r
je j
jej u
Dav i.
ca mpara
a campara
lon g
a qui,
Deus ?
Va i
far inha
ta ;
ca dá
ca beça,
da queles
ta nhos
b riga
Lí ban
i miza
mús ica
m orte.
4 -3
pe ixe
i ção.
aparece u
ama l
de termina
dizia :
orien te
u je
iras ,
e ca
apa n
apan h
b ula
despo j
T á
cons a
parece r
la ca
ape n
da í
c ifica
c obre
a mã
ê e
Ce rta
d uma
s te.
a do,
n tei
19 ]
a crifica
s uper
s acrifica
s ubiram
r omess
p romess
arrabal des
promess a
i migos,
in imigos,
e tern
pã o,
r tina
reje ita
m inhos,
c to,
n çara
conhece r
azei te,
He r
nós .
pre va
n jos
a njos
fora ,
os to,
ure za
Pois ,
const r
Con s
[2 9
Moa be,
ve ,
i del
torna rá
Porque ,
Bala ã
o rtina
ca minhos,
apen a
Certa men
c ortina
apena s
i bula
Certamen te
r ibula
primogêni t
c ompre
pon h
i tã
0 -77
5 0-77
9 50-77
9 950-77
9950-77 5
9950-775 9
9950-7759 :
portan t
tens í
u tensí
utensí l
Pedr o
ça is
filisteus ,
sempre ;
discípul os,
fren te
o rifica
l orifica
g lorifica
te a
x pe
p les
d s
m ples
portant o
i mples
p itã
t ribula
conta dos
constr u
ca pitã
4 MB
i quém
re gozija
S iquém
f lores
u -a
clamo r
i léia
l iléia
a liléia
G aliléia
r ->
ra m-n
IS A
are i
ouvidos ,
c oloca
sina g
sinag o
r imento
sinago ga
cos t
ça n
18 ]
I D
çã o:
torna ra
conse r
Í AS
c ox
Ben d
u -se,
ISA ÍAS
êe m
s eca
siste ma
peç o
metr os
text o
Leva nta-te,
conden a
u ira
duzen tos
abundân cia
Ô N
[25 /12
oá s
ban da
r ida
de ixe
iza d
izad o
céus ,
Efraim ,
l iba
Te x
o -nos
s ú
volta ra
necess á
v iva
mes e
toda via
mese s
CR ÔN
voltara m
e xpe
CRÔN ICAS
pa cto,
negóc i
e xce
u rba
intei r
outei r
t urba
Pe la
r itura
ân i
AAAA AAAA
b léia
b imeleque
m bléia
A bimeleque
e mbléia
s embléia
s sembléia
a ssembléia
E ntão,
r -vos
car ga
r idos
a tos
A bia
Se ja
c ien
r ica
S ã
S íria
o -os
a veis
ma e
g uira
p laca
mon tanhos
montanhos a
o roa
p ultura
e pultura
s epultura
f ogo.
gara m
fí s
b itas
Joã o,
oque ,
vestes ,
med o
cobe rta
cria n
esperan ça
G uarda
u -me
Se o
apa rta
pass e
Ze de
U ma
filh o.
fortale za
todos ,
just ifica
07: 5
is p
ç o;
h aveis
Sã o
c ritura
s critura
f idel
s uje
l inha
Ma r
Jeri c
Jeric ó
pa i;
Bem -aventura
res ce
tra d
amal d
H á
r utos
Va i,
11: 2
c ito,
c lasse
s par
is centos
dura n
leva ntaram
vie r
n x
e nx
O R
despe d
ca íram
des eja
S uce
iba s
r ibas
b ã
a bra
rá :
peca do.
de o
z ã
e iscentos
duran te
Seo l
s eiscentos
Suce de
s imples
sú plica
n ome;
treze n
[ i]
Nabucodonosor ,
bn e
marav ilhas
cordeir os
cân t
c n
. ja
.ja va
r oso
deuses ,
-te -ei
ca p
chama da
re l
E ntre
A za
m ira
J ó
justi ça.
ce ita
da ra
deixa r
( 0
ca ria
te c
I EL
r cito,
fidel idade
c resce
c oroa
é rcito,
x ército,
çan d
e xército,
As e
g nifica
i gnifica
pacífica s
m pos,
pereg rina
e mea
s emea
pará b
con firma
paráb o
s cond
povos ,
esque ce
ma is.
d ifíci
o press
lá c
m orta
M ine
leva d
levad o
qu in
Sa ra
da vam
le x
cati vos
Je o
la re
E le,
ix ã
e scond
A bne
Abne r
c ribas
s cribas
e scribas
[29 /12
domín i
mandamen t
evangelh o
rás ;
transgress ã
a pressa
h is.
t his.
o met
is ita
estabe le
16: 0
T ra
15 ]
palavra .
à que
v inho,
d ó
passa n
p ila
a bre
s eve
tí n
m porta
mandament o
pa lác
çand o
f rutos
o u-se,
p rimento
m primento
nçara m
consa gra
companhei r
printf( "
princípi o
Bas ã
ache i
t imos
S ião,
pas tores
mera m
e cuta
x ecuta
tã ,
s tiga
continu a
s ceu
orien tal
mos a
cá l
x iste
gado r
Guidary :
a bs
Le mbra
u ca
u to,
la menta
== =
pés ,
pre ga
i ores
va idade
Da ma
E u,
T inha
J ER
me rá
be b
Dama s
JER EMIAS
pa ixã
mae l
Bend i
primogênit o
a tenta
o vo:
difere n
ra inha
câmara s
= 5
m ém
ba tiza
filhos .
tra zia
r ogên
token s
re tidã
ben e
a ção,
a nças
N ós
passa ra
ôn ica
leã o
juramen t
des i
é cie
i rdes
P ila
p écie
n anças
s pécie
de nanças
e spécie
r denanças
p ovo:
o rdenanças
e xecuta
v isita
a ceita
s ignifica
a bã
guira m
interpre ta
- 15
6 -15
8 6-15
6 86-15
9 686-15
9 9686-15
99686-15 2
99686-152 2
99686-1522 :
Pas s
o mará
ma is;
estende u
U EL
ca mel
E nquanto
hoje .
u vores
o uvores
l ouvores
profeta ,
( );
ma te
E Z
homens ;
seja is
ó le
o -lhe
bá ,
b la
T u,
fique i
ce va
M UEL
A MUEL
S AMUEL
Bendi t
cál i
a sceu
Bendit o
cáli ce
n asceu
Na f
rn i
t imiza
c ulas
- Poder
o -Poder
d o-Poder
m po;
o do-Poder
T odo-Poder
oficia is
1 ,
ban que
l tíssim
Se i
Pedr o,
próxim o
cora ção;
re colhe
príncipes ,
cidade ;
torna re
te rão
tes .
le i.
pa í
paí s
r dei
dia ;
le ta
ra ;
de le;
in fe
deixa n
` `
fina l
cia ;
l tera
e mba
Fe z
E ra
Toda s
la dos
a má
Moisés .
r mosa
o rmosa
(0 .
dara m
j ú
te rás
Elise u
porta ,
m padece
o mpadece
cativeir o
u nção
de fe
s cra
bronze ,
is tes
côva dos,
m igo.
S ião
b lica
sempre ,
pais ;
Jos ia
Josia s
v imento
u eira
eles :
Joa be,
tron s
t ro.
n grande
o i,
t orre
P re
glória ,
la t
s ize
pô r
te is
r ões
rece b
z imos
bá s
a cusa
jus to,
(0. 0
A ltíssim
L abã
passara m
rogên i
ca stiga
a caria
Z acaria
N ES
Zacaria s
â metros
conser va
derru ba
Elea zar,
ch ã
f ortes
i go:
l ige
in circuncis
testemunha s
man o
n o.
Paul o,
estatutos ,
m inho.
A ura
s aben
stat i
fle cha
stati c
quatro centos
iment o;
também ,
imen ta
Ma ria
acha r
D ia
tre las
is tura
qu ina
mon te,
la :
Sa ta
vel men
de la.
d éia
h _
Sata n
s trelas
velmen te
m istura
Satan á
ca minho.
Sataná s
e scra
g ueira
deixan d
deixand o
Pila tos
desi g
m paixã
o mpaixã
o meram
c ompaixã
trezen tos
r osto,
acampara m-se
refúg i
la nçado
tocan te
u giram
garo t
garot o
std:: s
pad o
std::s t
std::st r
std::str in
std::strin g
é ria
perfe i
bois ,
n tiga
mada s
derr o
sabedoria ,
ta -te
multidã o,
holocaus to,
famílias ,
l oria
m inu
a tura
s teve
a ia
pés .
15: 4
a cá
tam p
tara m-se
t x
í veis
19: 0
res ga
z o,
Isa í
m omen
tamp o
Isaí a
e steve
e strelas
tampo u
f ugiram
Isaía s
desig n
c omeram
e ngrande
u blica
Naf tal
n tam
o u-a
o briga
IN T
E QU
m ôni
gs a
o -vos
tra ta
r ido,
Nianir :
Jônatas ,
t idade
Sime ã
aproxi ma
mortos ,
t igo.
livra r
x plica
tenda ,
coisas .
poder os
Israel ?
ga l
t k
f ê
dec re
i gura
inh o;
07: 4
u cifica
P ra
tes ;
f ô
z inha
f igura
r ucifica
tampou c
tx t
g loria
tampouc o
f ormosa
o timiza
jurament o
=5 .
o mprimento
o uca
c omprimento
àque le
domíni o
ra zã
apas centa
diziam :
sobre v
t igo;
pris ã
cons ulta
extre m
d urece
Mes tre
sába d
sábad o
vinha s
iniqü ida
[5 /2
poder oso
guarda ,
e spírito,
vida ;
poder ,
o te.
faze s
re f
usa n
in voca
-lhe ,
apa ga
fez ,
pon t
c omen
be ze
n vie
fronte ira
G Ê
ma us
m oa
cha r
J on
v inda
T ira
r pura
Disse ,
o clama
r oclama
ú rpura
GÊ NES
beze r
p úrpura
i ção;
GÊNES IS
saben d
sabend o
tornare i
d o-lhe
t omará
n ação,
passan d
passand o
d isp
expe r
H amã
blas fe
x te
xte r
amorreus ,
lâm pada
r men
m iná
triste za
u agem
g uagem
o diam
p odiam
s cuta
trombeta s
V olta
fe ,
Eze quias,
l uta
rebanh os
R oboã
convos co,
próxim o,
sober ba
apren de
abandon a
ita .
15: 0
o ucos
estabe lece
dias ;
qu ê
Gileade ,
N os
i tá
ba g
16 ]
iss ã
Is t
ç o.
rep o
t on
c s
mandamentos ,
Joã o
odes ,
Jes s
l ux
Ist o
e xter
rá p
p ublica
de môni
d rogêni
i drogêni
h idrogêni
e guiram
s eguiram
A mém
.java :
e spar
va r->
utensíl i
a ga
cortina s
o logia
norma l
u ndo;
ribeir o
o uro.
EU S
total men
totalmen te
subs t
14: 3
porque ,
Jeroboã o,
carneir o
par te,
e guia
s eguia
exércitos :
difíci l
u ros,
nações .
Sa lva
u rma
n atura
S obre
p ora
z re
s pia
D os
f us
Disse ra
V ie
acha d
i rão,
u dez
in ux
iss o.
quan tos
& &
n udez
i zre
Dissera m
achad o
izre e
utensíli os
izree l
bezer r
bag u
in guagem
e xplica
EQU IEL
EZ EQUIEL
c ompadece
ta ria
Is mael
r seve
pe rseve
amald içoa
o u-me
r turba
pe rturba
Gibe á
13: 5
fra que
d oura
res e
v imos
l oa
[ 0
des tra
Samária ,
extre midade
enche u
despo ja
E IS
R EIS
esque c
r irás
exércitos .
m ula
p o_
in icia
boca .
- las
Be lém
us car
E stá
f la
i tera
os os,
- 8
r gem
i rá;
rebanh o
u rta
ja ma
jama is
l inguagem
e spia
repo us
p roclama
usan d
e nvie
. tk
usand o
con tigo.
L .tk
é trons
l étrons
e létrons
m pila
o mpila
faze re
necessá r
fazere m
necessár i
3 "
j umentos
ress uscita
rev o
r ilh
fe ito,
ç os,
in v
itas .
roda r
primeir os
os pera
e mos
r ospera
n ele,
verdade i
m pres
palavras .
r idã
s carne
l to,
arraial ,
filhos ;
leva rá
b orre
d imento,
le ma
a mina
ape d
s de
t ios,
u mina
don de
ra nça.
dize i
P S
fa s
r ilha
fa rão
is m
S ina
De sde
x amina
p rospera
e scarne
Jon a
c rucifica
par âmetros
jú b
júb i
ônica s
júbi l
mia m
i rá:
d irá:
l gar
oás ,
ponh a
v igia
obje t
dizem :
Absalã o
i oso
Senhor !
clamo u
i mine
sába do,
Assíria ,
98 2
ensina r
ca mpos,
i lga
mãe .
nós ;
Babilônia .
P é
r tira
Pa rtira
Partira m
Quan do,
irmãos .
v oa
oferece u
T ia
r osos
fes s
mesm o.
Aca be,
de mora
in os,
entrega re
usc i
r ça,
a dade
montes ,
r po,
peca do;
tes t
te rre
e rança.
h erança.
L.tk .
b uscar
necessári o
hidrogêni o
n durece
n ta-te
tín u
con tínu
palác i
x cele
e xcele
âni m
is tória
estrangeir o
qu i.
tes ta
constitu i
corda s
rge s
a fe
ita rá
Jeoia da
trevas ,
fa laram
f oda
r oca
F ora
companh ia
ba t
dess a
d ita
e i,
espada ;
N inguém
espada .
obras ,
re ita,
i reita,
d ireita,
u íram
despe rta
Ta x
Tax a
O M
corre r
seja s
o do,
M in
Assim ,
j untaram
Aza ria
a car
o -o,
O uve
Azaria s
jus ta
h istória
o rpo,
c orpo,
n tios,
e mpres
c ompila
m undo;
pont o
receb i
lige n
e xiste
Ase r
desfa lece
m ura
x ulta
e rpe
s erpe
de fen
e mana
t única
ibe ra
Jordã o
r omete
hoje ,
obe d
de ã
altar .
n çar
terra ?
r fã
ó rfã
cheg u
fe ita
m bre
d qu
que s
l pe
dia ta
mon t
o ço,
m-se ,
B oa
fizes s
is ?
Ben a
p q
t rina
u trina
fizess e
Bena í
p romete
i deã
o utrina
Benaí a
G ideã
d outrina
Benaía s
e ndurece
objet o
r ônicas
c rônicas
t urma
o miná
b ominá
a bominá
u déia
J udéia
(0.0 0
ra iva
la nçaram
tornara m
o merá
ressu rre
arrabaldes ,
s olta
quebra n
subs is
fís ica
apren der
compra r
c rav
porventura ,
pequen a
estran geiros
filhas ,
Saul :
dei t
12: 0
segura n
A lém
mulher .
P C
Aca z
f uma
19:3 7]
Ã O
a des
u mes
e rve
ma re
Bala que
amen te,
i mí
ate m
pós i
atem o
r imí
s erve
atemo r
p rimí
o uvem
c omerá
a dqu
Iss acar
ge ntios,
t roca
o rça,
b lema
aped reja
o blema
u ridã
r oblema
c uridã
perseve ra
p roblema
par tí
s curidã
e scuridã
espar g
p leta
m pleta
o mpleta
c ompleta
i mporta
l timos
ú ltimos
ga da
irmã o.
t uta
e rto.
dere i
des erto.
n ora
e scuta
pedi r
Qu iria
M odel
a ntiga
O D
o Token
J Ó
c .
ita da
iniqüidade .
reinar ,
p uses
entre gar
o lte
vida s
Dan iel
man s
a ura
derra m
o go;
deia m
r de.
r ora
peca dos,
pare n
I M
Ba r
aba t
! !
sonh o
o deiam
f ogo;
primí cia
res ponderam
adqu i
f orça,
primícia s
(0.00 0
e xulta
a juntaram
H adade
a borre
natura l
rá -
p oucos
iniqüida des
razã o
compaixã o
be .
Me lh
Pass a
o rto.
m orto.
n do-a
qua d
congrega ção,
F ize
res centa
c rescenta
e stat
treina men
ça rá
fortale ce
pon der
conta r
verdade .
ma í
/2 0
maí a
maía s
dize s
a fron
h t
Se ,
lh idos
o lhidos
c olhidos
San to,
ões .
San s
re inos
re lh
Jeosafá ,
de rre
19:3 9
que las
ta r-se
oca s
? ?
T ES
Ê X
vel ,
ÊX OD
19:39 ]
ÊXOD O
res ponder
rá- l
Melh o
Melho r
pósi t
subsis t
s emana
d o-o,
ligen te
z omba
con fess
982 4-3
9824-3 5
e xamina
b ism
9824-35 7
a bism
9824-357 6
ten dimento,
9824-3576 :
n tendimento,
itera l
e ntendimento,
con tigo;
p ouca
ibe rta
e h_
perfei t
o_ va
d isso,
r uga
des ;
capitã o
compre e
compree n
peixe s
n tender
e ntender
dirás :
10 :
i gueira
f igueira
bon dade
a liza
i je
Isaque ,
s tivesse
e stivesse
cordeir o
z pá
i zpá
M izpá
me çara
o meçara
u çã
uçã o
abomina çã
abominaçã o
salva ção,
nações ;
pôs -se
Jacó .
apóstol os
ma zia
) );
u tura
morreu .
He s
r ível
l çada
manda n
dores .
g ica
u jos
- 5
re .
e ma
ia .
o mpara
u que
longe ,
g ü
g _
## ##
conhec i
l ipe
o tí
be ça.
lon ga
é ze
i tenta
[2 /
tenta r
V is
ca beça.
éze r
[2/ 1
de b
A mazia
c ompara
c omeçara
Amazia s
l iberta
d ruga
Sans ã
(0.000 0
Se maías
H ama
s crav
diata men
e scrav
chegu e
diatamen te
G ilga
Gilga l
i po_
Mestre ,
n taram-se
d igo:
o rdei
c ulta
u bina
c ubina
con cubina
n tores
ca ntores
g rita
I :
Ah !
A I:
escolhe u
manifes ta
tabernácul o,
n iss
idas ,
revela çã
revelaçã o
de pressa
a umenta
fá c
fác i
fáci l
m pera
-a s
par tira
partira m
E spírito,
obras .
va -se
carne .
cons ta
f ixa
Ass u
ça ?
tí f
c ris
a do.
b ria
ma je
x orta
de ze
os o.
cala midade
ca bra
va lia
ama rgura
uma s
fazia m
b use
U ria
ves tí
obra ,
H m
is ra
í dos
i quem
u co,
maje s
isra e
je buse
Uria s
niss o
ma druga
o itenta
pósit o
a lçada
a crescenta
derram o
n eve
deit o
desa mpara
a qui.
imine .
u lgar
in imine.
bagu lh
m inimine.
. minimine.
m .minimine.
o m.minimine.
c om.minimine.
o migo.
v istes
c omigo.
u be,
r ze
o rze
v idade
cat orze
e la;
C AR
conhece m
cuida d
cuidad o
L ó
Sei r
ciona l
clama ra
filhas .
spíri to.
testemunh o,
Que r
o gar
lá g
lág r
lágr i
spír itos
A X
Judá ;
Dan iel,
ba cia
proje tos
c ujos
r face
qu ie
1 ;
pa v
p é,
c ou,
14: 2
traze n
amen t
le ?
iã os,
peca dos.
tron o,
fize stes
iga s
r <
v iu,
> :
pre ç
la i
13 8
iên cia,
res ulta
o );
4 9MB
U n
c iãos,
trazen d
lágri ma
n ciãos,
clamara m
a nciãos,
israe l
deito u
derramo u
Hes b
iteral men
Hesb o
iteralmen te
perfeit o
Hesbo m
s colhidos
estat u
e scolhidos
estatu t
estatut o
i tuta
Model o
t ituta
os tituta
r ostituta
p rostituta
l ibera
entregare i
s emos
verdadei r
con fus
blasfe ma
u tro.
R amá
Me rá
cânt i
oita v
oitav o
==== ====
Jeroboã o
f unção
Baal -
in veja
n sin
e nsin
p io,
m pio,
í mpio,
e ste,
ê -la
i dura
d oque,
a doque,
Z adoque,
ibe ,
pren de
ifica da
t omos
n aqueles
l ou,
o gress
r ogress
a plica
r igo,
omet i
pedra ,
os amente
le pra
te centos
e tecentos
s etecentos
Aca zia
Acazia s
r ca,
a loca
Ta l
pequen o
cria nças
i tia
E T
mostra r
j orna
veis ,
s cen
car mes
[25 /3
in te,
de pe
jura r
da be,
ER OS
n tá
cox a
ca verna
roda s
arre bata
de va
Ú M
us ten
depe n
N ÚM
s usten
C oa
NÚM EROS
carmes i
carmesi m
r isse
á tomos
lágrima s
o utro.
preç o
e spíritos
M AX
j ulgar
a valia
n otí
ta rde.
deixa rá
Min i
usci t
f loa
extrem ida
extremida des
í zo,
u ízo,
mat éria
j uízo,
n daram
óle o
p isc
Basã ,
E scritura
o cia
desped i
inteir o
v êem
o ge
refúgi o
a rras
s treme
e streme
rã ,
subst ân
Jeoia qu
Jeoiaqu i
Jeoiaqui m
escolhe r
primogên itos
desse s
ca mpo.
carneir os
convos co.
peleja r
K kkkk
j umenta
u rra
i vinha
d ivinha
a divinha
u ição,
15: 3
céus .
volta n
carnei ros,
altar ;
m itas
A don
cia l
n ovos
16: 4
fazer .
P R
poder osos
ma p
on te
rá c
l umina
- te.
c io,
is te,
% s
man cha
l quias,
acha vam
h is
o vem
t y
floa t
MAX _
t ificada
trazend o
madruga da
bagulh o
tíf i
começara m
t ipo_
paren te
torna d
Quiria te
tornad o
pres os
a raiva
s araiva
Fora m
o má
moa bitas
flecha s
be rá
be ;
KKKKKKKKKKKKKKKK KKKKKKKKKKKKKKKK
pe le,
p lex
m ila
preva lece
cadá ve
c lus
n tavam
m bos,
de la;
m par
dere m
6 -77
9 6-77
0 96-77
7 096-77
9 7096-77
97096-77 0
97096-770 0
97096-7700 :
Sucede u
be rás
a fe,
í cie
Simã o
Se g
semelhan ça
n ele.
mortos .
despeda ça
Dav i;
Ten h
l ma.
a lma.
r tes,
justi ça;
g ita
d ição,
v irás
s sentado
a ssentado
rep os
con voca
mulher ;
re cusa
declara ca
ça re
n tea
pra ntea
va ria
despoj o
con vida
le p
faze is
* *
ê ,
d x
u bia
on e
M orre
pas ,
-e is
g ã
w s
L éia
A P
a ux
tenta n
Galiléia ,
EU T
oria l
D EUT
DEUT ER
declaraca o_va
DEUTER ON
declaracao_va r
DEUTERON Ô
DEUTERONÔ M
Quiriate -
rác u
DEUTERONÔM I
rácu l
DEUTERONÔMI O
vestí b
vestíb u
vestíbu l
partí culas
esparg i
J izreel
m issã
design a
va velmente
o vavelmente
r ovavelmente
O be
T ô
Zacarias ,
r dó
ce rdó
Amém .
a cerdó
fa lare
s acerdó
d mira
a dmira
a tis
s atis
s uscita
A rão:
Ma ta
pereg r
igreja s
tra va
bon s
98 3
amen te.
benignidade ,
ora ra
orara m
Baal ,
envia re
ce rra
glória .
conhe ç
in forma
ita çã
itaçã o
r viram
coisa ,
n ovo,
Pe rda
mos :
cadá veres
mentira s
É poca
s forma
afa s
á rio;
tra je
-4 8
5 -48
9 5-48
6 95-48
8 695-48
8695-48 0
8695-480 4
8695-4804 :
bar r
decre t
cora ção:
g us
g (
Je oa
i ou,
19: 5
qu into
ba a
n on
in í
ú de
g és
grande ,
Ma is
con der
conheç o
s conder
s ubia
Seg u
n ície
la nície
p lanície
substân cia
uscit o
notí cia
c ila
o r<
t or<
majes ta
c tor<
ve ctor<
deze s
e xorta
dezes s
dezess e
subsist i
v olte
que a
c omba
i rgem
v irgem
f urta
demôni os
via gem
Salva d
Jess é
Salvad o
Salvado r
Eles ,
púrpura ,
i minu
d iminu
camel os
Zede quias,
derr iba
negóci o
Siquém ,
\n ",
a ú,
s aú,
E saú,
rece beram
19:4 0
19:40 ]
O V
gerações ,
l fe
za .
manifes t
insensa t
e qu
Qu i
gra us
i mará
que imará
dize -lhes:
quê n
quên cia
ama m
É R
todos .
Tra ze
Nã o,
n sforma
fazer ,
gra dá
r inh
u lã
e bre
-lhes ,
Jes u
O x
orien te,
pã o.
da lias
e la:
tenha s
d imento.
qua rta
ope n
de via
z ije
mila g
filh o;
Ce r
o zije
[ declaracao_var
tra nsforma
g ozije
uscito u
l n
baa l
gés i
e rviram
enviare i
Obe de
s erviram
tentan d
cadáve r
a ndaram
u ntá
a rca,
prese r
o uco,
o pósito
r opósito
p ropósito
o culta
Fize ra
Benaías ,
r mura
Azarias ,
u rmura
Re i
f lux
s aia
banque te
transgressã o
opress ã
Be t
outeir os
peço -te,
Balaã o
jeju a
u mbra
m piedade
i mpiedade
Lev i,
Simã o,
serpe n
i rão:
marav ilh
trad o
cativeir o,
beb ida
encontr o,
carneir o,
de trás
-e i,
espe cí
Todavia ,
Ben -
salva ção.
ta manh
Re be
côva dos;
procura m
manda d
mandad o
Be r
car ros,
m inho;
ca minho;
f omos
u cura
o ucura
l oucura
conse lhe
mos ?
porta .
mesm os,
teme m
ma rão
dec i
va zia
í do,
c into
u os
tia m
Ma t
ix o,
p ina
B R
- 2
n taria
pai :
ce les
ca deias
a spe
| |
ponde u,
va ca
conselhe i
tentand o
a gradá
h ebre
OV ÉR
PR OVÉR
e sconder
PROVÉR B
PROVÉRB IOS
n gus
u ário;
d oraram
t uário;
a doraram
n tuário;
a ntuário;
s antuário;
t rigo,
confus ã
c iência,
12 8
deb u
conheci d
i ligente
conhecid o
10: 0
a quelas
relh a
l iteralmente
O ÃO
J OÃO
0 f
escarne ce
rese r
n tidade
. gsa
paternas ,
Dia b
defe i
lava rá
recebi d
recebid o
ga re
í deo
i ve,
\n ");
- os,
Vós ,
C ++
fariseus ,
l vos
z o.
c ular
i osos
apresen t
continu amente
Damas co,
precisa r
arrepen de
José :
cá r
á guia
apren d
discípulos :
me çar
o meçar
pratica m
don ze
ga fan
gafan h
gafanh o
que ixa
12: 3
vel .
are m
Pe n
coisas ?
seja ,
[2 6
d ões
Joa n
tira re
palavras ;
i las
qu ã
quã o
J U
iras .
p icia
o picia
r opicia
p ropicia
ca ia
E V
proje t
pres o
vem ,
( pois
ôn ios,
C OR
c lea
. ba
fon tes
os pe
ú da
a lte
i via
n dava
r ospe
projet o
cár ce
c omeçar
a lvos
d iligente
defei t
a ngus
da mentos
n damentos
d irão:
u ndamentos
re gozije
Fizera m
f undamentos
m urmura
Ge dalias
ta çã
taçã o
decret o
sacerdó c
Tenh o
depen de
g ocia
deva s
u inte,
e gocia
g uinte,
e guinte,
cânti c
iã o.
s eguinte,
Assu e
Semaías ,
ce p
ocas ião
de mon
Ismael ,
exter i
exteri o
disp os
fô le
ma rido,
infe rn
v irdes
bene v
benev o
benevo l
benevol ê
benevolê n
cien te
Dã ,
especia ria
especiaria s
estrangeir o,
raí a
raía s
carta s
ja nelas
m -aventura
be m-aventura
Pergunt ou-lhe
altura s
portan to,
ê nção
b ênção
le i;
rge n
mag is
magis tra
ora s
á zimos
cha me
filis te
alguém ,
v idã
r vidã
e rvidã
povos ;
s ervidã
Ah ,
Jacó :
afron ta
S obe
ressu r
gera l
i gên
alguma s
Da i
m o-nos
r rível
o cidade,
irmã ,
trabalh o,
reina d
-me .
reinad o
ta ura
res taura
16: 3
gei ros,
H ina
va les
m ote,
ve ria
Judá :
oferece ra
oferecera m
Sa fã
Pa i.
p omba
disc u
ven to,
Ze r
le qu
be rta
o bia
fre q
conhece ra
u gia
mant o
prata .
ape rta
r ça.
profe r
on da
m bria
-me ;
G é
o do.
u lá
e -0
s pre
m ores
C ria
p ouco,
a berta
Gé r
ressur g
p rospe
s alvos
l ique
i dões
Joan ã
apresent o
v ídeo
l untá
o luntá
ça mos
ba m
manifest o
983 4-3
9834-3 4
n çare
o rtes,
9834-34 2
g dx
9834-342 8
r tificada
o rtificada
f ortificada
Acazias ,
aloca r
o ja
ament o
atemor iza
constitui u
test ifica
Maria ,
c ordei
retidã o
m ilh
Bem-aventura dos
abra s
Abia ta
Abiata r
poderos a
n çando
p ureza
especia l
u ídos
Lev i
programa çã
programaçã o
é rio,
I ta
P õe
tre men
constitu í
Con tudo,
v ido,
trombeta ,
t ida
sepulta d
sepultad o
chuva ,
perman e
daí a
daía s
côva d
côvad o
untaram :
Jordã o.
g untaram:
r guntaram:
pe rguntaram:
con tendas
iniqüidade ;
v iste
servos .
d igo,
con tende
u tado
I R
r umentos
t rumentos
ins trumentos
H oje
lugar ;
guarda n
os _
A D
Gra n
dores ;
m igo;
car va
ure i
i rre
os !
a corda
tada s
rna b
pora da
é n
ma quina
世 嫉
g rá
b rão
leva vam
rra y
pe c
aux í
Na o
b ura
mos ura
Be e
++ )
r mosura
auxí l
A brão
愤 世嫉
o rmosura
Ba rnab
d '
愤世嫉 俗
f ormosura
愤世嫉俗 :
v oluntá
apresento u
9834-3428 :
ibe rdade
ama lequ
l iberdade
conhecera m
a ndava
exterio r
e io,
COR INT
CORINT IOS
vaca s
preser va
is ó
É s
Jesu á
ma lfe
malfe i
disse .
o ws
ta i-vos,
r tífi
his t
i lumina
a rtífi
artífi ce
voltan d
voltand o
gera r
i gési
P rogress
filha ,
te mpera
(0.0000 0
quad r
precis o
o lpe
g olpe
contínu o
Pé r
J oás,
Vie w
lâmpada s
conhece u
r co,
AT OS
reser va
e leva
Jeo v
quin ze
Jeov á
A mn
Amn o
Amno m
ca mpo;
pron u
linha gem
pronu n
Líban o
r ige
Absalã o,
rra iga
MAT EUS
festa s
c urece
dinheir o,
a companh
Pedr o:
és a
C ésa
Césa r
te mpo.
Bem-aventura d
Bem-aventurad o
fa çais
i madas
ó pia
o bal
ba be
i vo.
o babe
11: 0
rebanh o,
revela ção.
v ifica
i vifica
Faraó :
profetas .
s con
if( !
trabalha r
guarda d
Tex t
H avia
h ores
n hores
tenha m
e te,
r utura
t rutura
s trutura
ve ira
abs o
use r
des vie
1 ):
Qual que
Qualque r
ida ;
despe r
Se r
i rei.
ora ção,
me rás
Tá r
l y
te ress
Í T
e le?
cha mando
raí ze
Pe ra
x tra
ê .
in tera
í on
rá ?
f orna
va le,
ge t
quise ra
fes a
e ntes
la y
d ou,
ban d
o deia
r =
GL S
í do:
pas ta
l r=
GLS u
Tár s
raíze s
lr= 9
forna lh
GLSu rface
de fesa
EV ÍT
que imadas
in teress
lr=9 .
fornalh a
GLSurface View
o merás
L EVÍT
c omerás
LEVÍT I
LEVÍTI C
guardad o
e strutura
o mbos,
LEVÍTIC O
l ombos,
guardan d
Síria ,
guardand o
t idões
e-0 4
l tidões
e-04  
e mbria
u ltidões
rgen s
m ultidões
propicia t
propiciat ó
especí f
gera d
ten dimento.
n tendimento.
e ntendimento.
insensat o
Perda :
i deira
tipo_ ba
tipo_ba s
tipo_bas e
b io,
ET A
t idura
ETA =
israel itas
ves tidura
p igas
o deis
/2 6
/26 4
/264 6
/2646  
quebran ta
17:3 4
17:34 ]
Taxa :
L.tk. t
excele n
L.tk.t i
Jona s
repous o
b rirás
Eis -me
ráp i
rápi d
rápid o
Boa z
Simeã o,
n rique
e nrique
o vimento
`` `
ceva da
m bla
e mbla
reta men
s embla
l oso
escond i
súplica s
Zede quias
AAAAAAAA AAAAAAAA
melh ores
ga ,
lâm pa
re lâmpa
16:5 5
16:55 ]
rep ousa
aldeias .
chã o
e poca
rmen t
imen s
desfa le
tra m
Samária .
o mandan
c omandan
mon tã
Roboã o
i mpo.
l impo.
ivas ,
derro ta
própria s
marav ilha
E lã
peleja ,
pá t
sober b
a press
U zia
Uzia s
esquec i
povos .
pedras ,
19:3 6
Ce s
19:36 ]
Baa s
r imento,
p rimento,
m primento,
cria d
criad o
19:3 8
19:38 ]
s i.
Salomã o.
r icos
12: 5
espe r
pe ito,
tenda .
ca .
Ta ma
Tama r
r ido.
gra ve
a lto,
vã o,
envia d
enviad o
z o;
I rmã
fantasma s
i rei,
ponde n
jeju m
ema =5.
e rdade
g irás
Que n
Ja be
Jabe s
Se ba
r uto,
f ruto,
Deus !
p y
r midade
nós ?
leã o,
2  
dec o
r o:
t ureza
á rios,
Ge ra
: //
l inho,
u nidade
apa re
cá -
m =
r via
ra me
i po,
u do.
gerações .
L inux
r oso,
cons pira
i ço,
press ã
mare i
a tureza
s ://
ó ia
n atureza
p s://
j óia
t ps://
conselhei r
ht tps://
Baas a
s pigas
p odeis
band o
e spigas
rment o
e xtra
L.tk.ti p
retamen te
v 1):
L.tk.tip o
e scon
n tai-vos,
( v1):
Pér s
Progress o:
daías ,
prospe r
b ulá
o rça.
oze s
m ocidade,
f orça.
diligente men
sacerdóc i
diligentemen te
u clea
majesta de
a quea
s aquea
s dra
E sdra
p rovavelmente
Esdra s
peregr in
u ções
Adon ia
Adonia s
leva ntei
u -lhe:
chama dos
o u-lhe:
Amazias ,
ressurre i
ra m-se,
ressurrei çã
ressurreiçã o
ra c
Naftal i,
gra ça,
size o
sizeo f(
e scritura
Abia s
long o
muitos ,
s borda
Je ú,
revo l
mag ina
ma res
quí m
4 1MB
eterna .
entregue i
b itará
Jeoiada ,
a bitará
h abitará
alegria ,
deuses .
treinamen t
treinament o
bronze .
Gibe ã
mias ,
modelo -0
esquerda ,
r vo.
estranh os
a tende
o mprimento,
c omprimento,
o -vos,
[ 1]
puses te
iã o;
Mica í
Micaí a
Micaía s
1 /20
Josias ,
o ),
je i
tal ve
talve z
Sau da
/ 10
0 /10
0/10 0
0/100 0
0/1000 )
acha m
u ito,
cap i
bn a
estranh o
Te u
Aí a
Aía s
esca pa
boca ;
côva dos.
p ica
volta rá
-s omen
o -somen
o-somen te
pe les
obra .
ba te,
pa gar
necess idade
19 7
l ine
l tra
da res
T orna
i deo
a on
ma a
i r-se
C OS
G U
ve rá.
p ios,
7 -3
I ⁩
u ição.
3 7-3
A I⁩
m pios,
8 37-3
v ideo
aon de
í mpios,
8 837-3
8837-3 3
8837-33 3
8837-333 9
8837-3339 :
morta l
u m=
n um=
m uito,
1/20 ,
leva rão
e rvia
e rvo.
s ervia
s ervo.
i ++)
bulá r
n uclea
bulár i
. get
o brirás
c obrirás
m ovimento
s curece
acompanh a
e scurece
obabe l
r obabel
o robabel
e nhores
Z orobabel
s enhores
voluntá ria
(0.00000 0
(0.000000 )
t ério,
la nçare
t odo.
e spre
onda s
i ciente
Gedalias ,
f iciente
cântic o
n egocia
u ntaria
uos a
l untaria
o luntaria
Ben- Hadade
vezes ,
ida dã
c idadã
outra ,
m orial
me morial
Morre u
u pisc
c upisc
con cupisc
concupisc ê
concupiscê n
estreme ce
p risse
m prisse
u mprisse
c umprisse
i gü
t igü
re g_
n tigü
a ntigü
antigü idade
t rora
u trora
la nçar
í cia,
r uíram
t ruíram
Issacar ,
f iquem
Tia go,
n fraque
[0 ]
Mini Mine
envie i
bás i
Altíssim o
bási c
básic o
I me
parâmetros ]
is ta.
Abimeleque ,
sinagoga s
t ou-se,
@⁨ Meta
Todo-Poder oso
amonitas ,
a quis
ilh os
viúva s
e meia
s emeia
men to.
morrer ,
aproxi mando
atra vess
ram-n a
cost uma
n çará
próxim o.
incens o;
incens o,
doze ;
estranh a
estende n
os co,
con osco,
peleja ra
sabedoria ;
exércitos ;
primeir o,
18:5 1]
i ciona
alguma ,
Crist o;
hora ,
leva ntam
icos .
des í
desí g
desíg n
la dos,
mata s
pra t
poder .
coisas ;
çada s
re ca
Qu is
desvia r
16: 2
entregue s
me io,
minha ,
cheia s
+ =
verdade ;
f ores
p ousa
F ica
pequen inos
Se rá
-lhe -á
teme ra
17:3 3
tis m
dize :
re que
le be,
u mia
disse -me
n dura
r iu,
re torna
n cie
pele j
b rilha
za da
r osos,
pe rpe
pelej o
pe ndura
17:33 ]
pelejo u
estenden d
estendend o
S y
acha va
des truíram
A os
e nfraque
jóia s
V erdade
esper o
v ideira
r ça;
constru ído:
v ivifica
d ows
in dows
-0 .
ch os
h eve
Zer uia
J OS
JOS U
JOSU É
ama ,
gare i
umbra is
ress uscitou
Ox a
Mes ulã
Oxa lá
o rácul
scen te
u ntei
ometi d
ometid o
>: 3
ime diatamente
promete u
jebuse us
júbil o
za e
mesma s
a zae
H azae
Hazae l
i zinha
i mundo;
v izinha
. txt
Ma acá
cabra s
Na queles
angus tia
Abner ,
r seguiram
pe rseguiram
cn t
capitã e
capitãe s
i -os
m possível
escra vos
pe rna
obje tos
funciona r
v indo,
u mpra
c umpra
aldeias ,
g ido,
pan t
Re u
s pant
e spant
d ireis
cuja s
Josué :
pois :
Gilea de.
purifica r
mel ,
procura r
trazia m
filisteus .
r omã
n cerra
e ncerra
pare i
suce der
be ba
mortos ;
fortale zas
ita i
r po.
oferece re
o rpo.
c orpo.
iva men
ivamen te
alguma .
o fa
Te s
fa tal
Ba n
rá rio,
t rário,
con trário,
Elias ,
servos ;
U CAS
L UCAS
i oria
ma ioria
d ônia
graças ,
ca ;
l che
ram-n o
mulher :
P orém
EN T
E c
presa ,
cla me
irmãos ;
Je a
oferta ,
Judá ?
i rra
le c
ca i,
Pa z
e gra
O pe
c ure
i rão;
ta do,
ba is
grande men
t .
C ades
A i,
resga ta
pare cia
t odo,
da ?
bezerr o
aba te
mag n
m ou-lhe
za be
zabe l
grandemen te
Ope n
g oa
lis on
ce dônia
e rta
T F
ó te
m óte
i móte
o rça;
T imóte
perpe t
f orça;
Sy s
perpet u
-0. 0
a lebe,
C alebe,
pelejara m
L aquis
bulári o
9 197
9 9197
99197 -
99197- 7
99197-7 5
99197-75 4
99197-754 0
99197-7540 :
Sauda i
0 0/1000)
p isó
v iço,
pisó d
r viço,
e rviço,
cá- l
s erviço,
t ou-lhe:
za ;
íon s
i rgens
v irgens
desa rraiga
i veira
l iveira
o liveira
a rray
c. gdx
i c.gdx
fortificada s
g ic.gdx
o gic.gdx
l ogic.gdx
d logic.gdx
.ba dlogic.gdx
m .badlogic.gdx
benevolên cia
o m.badlogic.gdx
c om.badlogic.gdx
fôle g
fôleg o
celes tia
tamanh o
B P
Cer t
BP E
Cert o
Jeoa ca
Jeoaca z
traje s
fa lou,
vei t
o veit
r oveit
p roveit
consta n
ize s
n tar-se
o relha
vestíbul o
be ça;
ca beça;
m oToken
proxi moToken
fuma ça
fra u
Ouve ,
s tender
r iva
consulta r
Labã o
re lat
í zimos
d ízimos
perda =5.
d w
tam _
i veres
responderam :
u ch
i mn
5 4MB
momen t
ra dia
iã ,
farinha ,
mant imento
etern idade
u fra
irmã o;
ape rfe
g uida
primogên ito,
largura ,
confess a
acaba d
N iss
acabad o
Niss o
venha m
izado r
morre rá.
arraial .
torna rão
fez .
qual ,
peit ora
peitora l
C AL
-me -ei
pratica men
praticamen te
u desse
p udesse
be stes
O O
r dia,
i ma.
18:0 1]
mãe ;
r idas
testemunh os
dã o,
estabele c
carrega dos
melh o,
r melho,
servos :
ie ntes
decla r
estabele ceu
don s
morre u,
tira s
g idos
za ra
G S
GS A
Lembra -te
s sina
a ssina
fica re
San to.
re comen
ID E
d _
cra f
ion iza
Se mes
le l
c obra
f oca
: 17]
mesm o;
m -me
terra :
t ões
parece u
in ven
Sime i,
ma tá
ma leque
n idos
E nvia
te m-se
ma iores
praga s
bens ,
o morra
la v
in r
Elea zar
ve lho,
PS E
e ge
u bra
g go:
perece r
juramen to,
i lia
I PSE
i ggo:
N ege
c ubra
G omorra
CAL IPSE
D iggo:
A maleque
u nidos
O CALIPSE
- Semes
AP OCALIPSE
Ma cedônia
ama da
g orda
Sys te
Syste m
n tou-lhe:
E ufra
u ntou-lhe:
t iveres
fe itas
g untou-lhe:
e stender
r guntou-lhe:
pe rguntou-lhe:
Ec r
fatal (
Ecr o
i mpossível
Ecro m
desígn i
d iciona
a diciona
lançare i
pressã o
rac te
missã o
peregrin o
prosper idade
b ly
m bly
e mbly
me x
Bee r
d' á
hist o
d'á g
histo r
d'ág u
d'águ a
v igési
z á
la nçando
p lique
te rrível
l igên
ge me
Ber s
Bers e
Berse ba
á -la
malfei tores
la gar
As afe,
r omá
a romá
s itia
gerad o
qua dra
e spírito.
/ projetos
i cou,
o /projetos
in o/projetos
tre ino/projetos
treino/projetos /
ida des;
fra me
tempera tura
proximoToken ();
o utrora
" Hm
des obed
Aser ,
b rão,
terre n
A brão,
disseram -lhe:
adqui r
b odes,
i cs
Pre para
paláci o
mon i
despedi u
V oca
química s
esquerda .
Jericó ,
u ições
6 0MB
difere ntes
o vens
de ta
Pa rece
con tudo,
d ões,
i dões,
á te
n áte
esteja m
defe ito,
trope çar
Líban o,
reje i
me rges
pra z
sin é
siné d
pond i
corações ,
diferen te
escuridã o
r mel
a rmel
C armel
21:0 2
21:02 ]
deixe s
É IAS
e rdeir
h erdeir
re clina
procura vam
esca par
dessa s
u vimos
# in
#in c
#inc l
houve ra
c oze
Téran ,
ensina n
bá l
F azei
Jeoiaquim ,
Na bal
i tória
v itória
pe ça
Tex tura
guarda m
esperan ça,
profeta .
pedra .
n ção,
n ucos
u nucos
e unucos
i gem
g ina
ainda :
a logia
carre gar
causa ,
M uitos
passa re
M os
g ido.
carga s
mate ria
EN S
13: 2
prepara d
preparad o
Í Z
JU ÍZ
fora .
t oa
ve da
entrega ra
de t
presen ça.
uque ,
carne ;
i rão.
s ortes
cus t
ma lh
vós ?
- o.
b y
E D
tí fe
te res
a mes
men inos
P ix
He z
ins .
O ba
r mos.
s cá
Responderam -lhe
D ra.
son o
O g
pon tei
t rilha
dez o
Pix map
e scá
Og u
JUÍZ ES
Ogu e
e alogia
bál s
n ealogia
#incl u
báls a
ge nealogia
ca racte
#inclu de
bálsa m
j ovens
histor i
matá -
moni t
matá- l
pisód i
monit o
h ics
monito r
p hics
ó rdia,
aperfe içoa
moment o
c órdia,
proveit o
i córdia,
n egra
r icórdia,
o lche
e ricórdia,
c olche
is ericórdia,
perna s
r vo;
u ncie
l umia
e rvo;
n uncie
a lumia
s ervo;
u lte
nuclea r
n tou-se,
cidadã os
e bate,
fe rmidade
n fermidade
e nfermidade
sembla n
amalequ itas
V eio,
carva lh
Gran de
[26 /12
gafanho tos
serpen te
opressã o
auxíl i
b itação
a bitação
h abitação
Coa te
repos tei
repostei r
i lquias,
H ilquias,
bacia s
escrav o
i lipe
persevera n
le mbre
R OM
Balaã o,
Gilgal ,
Sina i,
l inux
Her odes,
rá vel
itá vel
Vis t
Vist o
engrande ce
u vistes
cordei ros,
n davam
ordenanças ,
castiga re
castigare i
fortaleza ,
des coberta
outeir o
fe ridos
ma ridos
s ga
in éias,
F inéias,
conso le.
ventre ,
a ntes,
" <
e rras
madrugada ,
iá -
peregrina r
[i] .
abundân cia,
companheir os
super i
bei j
superi o
superio r
a bitas
h abitas
encontro u
governa dores
21:0 0
21:00 ]
treina r
riquezas ,
sabia m
o rida
corta d
grandes ,
honra ,
descendên cia,
sába do.
C ordeir
nuvens ,
kkkk kk
c ou-lhe
F arei
model o.
profetiza m
u via
vinhas ,
manhã .
holocaust o;
pratica r
o -ei
ria ;
glória ;
i tes,
ensina va
Babilônia ;
suce d
Jacó ;
espada s
aparece r
de zas
n dezas
u ndezas
ifíc io,
f undezas
o fundezas
r ofundezas
p rofundezas
t ita,
d o-nos
man dei
pra ças
ins is
Da l
-a ,
estran ge
j ogar
P q
corre m
ó gica
l ógica
pan e
r ria
ca bar
a cabar
u to.
o re,
le itos
Abraã o:
o é,
r ro.
palavra ;
9 18
liga ções
ça dos
18:4 8
pre par
( √
ú :
us que
r otes
oriente ;
l oque
viven te
infe r
te lh
mana da
r der
on ra
w e
chama ra
ta tura
4 2MB
ke t
s ários,
para r
e teus
r ções
dois ,
138 ,
in qu
L ivra
z ira
inqu i
h eteus
o rções
u zira
s tatura
r sários,
(√ )
18:48 ]
9 918
e statura
ve rsários,
18:4 2
N oé,
9918 -8
d versários,
18:42 ]
9918-8 2
a dversários,
9918-82 5
9918-825 0
o uvia
9918-8250 :
iá- l
a ndavam
pontei r
this. histori
pisódi o
m isericórdia,
N ebate,
malh a
fatal( "
a náte
craf t
o iva
n oiva
E stende
Je zabel
T imn
constan te
Mesulã o,
atravess a
hebre us
S ião;
Gér son
std:: vector<
m plex
o marei
p 2 
e p2 
v ozes
- Seba
pronun cia
irre pre
p os_
irrepre e
irrepree n
Ita ma
Itama r
Joanã ,
r oja
profer i
r roja
Safã ,
alte a
s altea
tirare i
i cular
aspe c
u ído,
n trado
e ntrado
Jesuá ,
Barnab é
in tende
j ovem
c imos
ensin o
Ramá ,
pav o
pavo r
hora s
d ézer
da dézer
a dadézer
H adadézer
Mizpá ,
n ira
o derei
res pondeu,
con e
terre m
te oria
termina l
o i.
blas fê
d imento;
convos co;
mada ,
paláci os
turma s
falare i
Gideã o
Seja m
t rica
ten a
: 3"
Cons i
Ba ra
arrepen d
compre i
exce l
i ": 
cons ciência
O i": 
" Oi": 
exalta d
exaltad o
tribula çã
tribulaçã o
lia be,
g nora
sabia s
o pra
evangelh o,
n triste
Na tã,
rra t
v isse
p ux
angústia ,
21:0 3
21:03 ]
cân ta
v inho.
Moabe ;
comete u
fe rida
e guida
s eguida
Faraó .
21:3 8
ma ": 
21:38 ]
plas ma": 
é ": 
lá ": 
O lá": 
benig n
" Olá": 
ca madas
s iga
esca n
Va mos
revela ção;
livra s
sobre maneira
e rtos
des ertos
pera m
ca doria
r cadoria
me rcadoria
p ê
famílias .
men ina
t irás
três .
alguma ;
estavam ,
declara rá
i migo,
in imigo,
sin ce
cria da
n do-o,
esperan d
esperand o
pan o
( 6
cria tura
obras ;
suce da
mata re
poder ;
b ine
extermina re
exterminare i
o -á
lh o.
poder o
podero u
é re
in ca
F oi,
c ido.
liba çã
libaçã o
i liza
peca ra
pecara m
exper imenta
iss i
livra rá
t uosa
re ito,
fa lh
T ã
ta reis
chefe ,
dá d
tra vam
pés ;
deixa d
del í
h re
m us
J us
o ço.
pequen inos,
passa va
ve lhe
semana s
O ,
le mentos
cons uma
( const
fre e
mesa ,
ita ções
r vam
fa ixa
D on
d n
mandamentos .
R io,
negóci os
apas cen
ofe l
r ós
O fe
quisera m
n ado.
in ge
Don de
b itações
deixad o
a bitações
i reito,
n velhe
e lementos
a poderou
h abitações
d ireito,
e nvelhe
s peram
beij o
e speram
o ten
i gnora
a rrat
n arrat
terrem o
u nira
p oderei
e lva
p orções
s elva
a rroja
t icular
par ticular
o rria
cortad o
u erras
console. l
g uerras
console.l o
F ilipe
dezo i
console.lo g(
a nuncie
p _
ENS ES
te -Semes
Be te-Semes
a praz
re cia
r -me-ei
Open GL
pas ma
G ame
celestia l
chora r
c ometido
i -a
ba tism
temera m
I GU
u ficiente
IGU AL
quím i
Á quis
res ponden
á bio,
Elã o,
l obal
g lobal
Nao r
e qü
eqü idade
manifesto u
( freq
a geiros,
s ageiros,
men sageiros,
pron t
a da.
l dados
o ldados
s oldados
cos .
cila da
fra c
a berás
s aberás
P U
v iste,
conhec idos
Merá r
Seir ,
dezesse is
Á s
i vem
Társ is
Hesbom ,
ã o:
on ze
a ntidade
s antidade
publica n
p riva
Isaías ,
quan tidade
l imenta
a limenta
país e
paíse s
N í
i mais;
n imais;
a nimais;
d ição;
vaidade .
o miam
Sansã o
suje i
4 3MB
te mpo;
flores ta
despo jos
Se raías
ponh o
u vindo,
c rita
aborre ce
t idões,
l tidões,
u ltidões,
Sucede u,
defen de
Me rge
Absalã o.
vontade ,
angústia s
pervers a
altos ,
antiga s
o laram
fa ,
oficia l
arre ba
le tra
próxim o;
tra vess
n ela.
Assíria .
inh ã
qu inhã
conta s
ofe n
c ++
envergonha dos
o uvimos
a is;
sabedoria .
in gador
v ingador
ten tos
ouvidos .
n ch
mon tado
filiste u
ce ben
( ),
spírit o;
18:5 3
18:53 ]
r mando
discípul o
D izia
ama do,
í res
tenda ;
saiba is
Joabe :
(Shiniga )
k s
minu tos
vã s
é tica
Man da
g rão
-5 7
banh ará
0 -57
0 0-57
9 00-57
9 900-57
9900-57 0
a co,
9900-570 2
s aco,
9900-5702 :
da nças
Entre ta
Entreta n
s ine
a fora
Jerusalém :
presen ça,
pad rão
in tos
procura n
pai z
concupiscên cia
-se -lhe
i =
H E
m pia
u le
passa dos
h ama
d inha
17:3 5
i u-lhe
o quia
par te.
s quina
p orra
A V
m pass
re edifica
ta :
L á
mata d
re z
passa m
gera ção,
E _
irmã s
ta dos,
dra gã
cura s
ú ltera
la ções
passa s
s apa
d últera
17:35 ]
i oquia
e squina
procuran d
a dúltera
t ioquia
procurand o
n tioquia
A ntioquia
ceben d
cebend o
m ultidões,
c omiam
v ivem
beijo u
gera ção.
dezoi t
s ábio,
t ofel
s uficiente
quími c
i tofel
h d
A itofel
delí cia
d issi
pê l
escan da
s opra
Consi de
Conside ra
é cimos
d écimos
o mplex
c omplex
chamara m
prepar o
preparo u
l o-ei
- lo-ei
ra sga
auxíli o
Ogue ,
u tífe
r utífe
f rutífe
entregara m
ensinan d
Voca bulário
adquir i
rece bestes
r dw
a rdw
h ardw
m irra
hardw are
romã s
colche tes
r melh
g untei
Zeruia ,
r guntei
pe rguntei
os to.
aproximando -se
v ilhos
just o;
o vilhos
n ovilhos
v oluntaria
fe rmento
Leva ntai-vos,
Pérs ia
Quen a
í zo;
interess a
u ízo;
i vão,
j uízo;
r ivão,
res peito,
c rivão,
s crivão,
e scrivão,
montã o
i ópia
t iópia
E tiópia
os ete,
o migo;
p utado
c omigo;
Na amã
S ião.
í zo.
u ízo.
j uízo.
ba ixo,
deci d
r uído,
printf(" [declaracao_var
printf("[declaracao_var ]:
equ i
v iou,
Mata n
ce is
Re n
susten t
sustent o
Urias ,
b usc
F IM
As d
Asd o
Acaz ,
fizesse m
m oço,
de vem
s semos
Judéia ,
u ltera
d ultera
a dultera
é culas
l éculas
o léculas
m oléculas
abras a
Con ve
c roso
i croso
u te,
icroso f
Seol ,
Abiatar ,
m pureza
i mpureza
desp os
cânt icos
i rdes,
i bos,
r ibos,
ribeir os
t ribos,
viúva ,
l ições
f lições
a flições
rocha ,
preceitos ,
i rige
i o:
std::string >
Elise u,
te b
teb o
de e
Escritura s
conse lho,
disc i
estatutos .
atra v
trevas .
atrav és
18: 12]
páscoa ,
batiza dos
carrega da
bronze ;
pequen os
determina d
determinad o
jus tos.
p oToken
17:2 8
i poToken
17:28 ]
T ipoToken
Token s
Jordã o;
r -lhe:
tocan d
tocand o
b ordã
ensina s
espe s
espes s
os -ei
I L
r uição,
t ruição,
des truição,
confia m
[27 /12
outra ;
Saul .
ifíc ios,
r ifícios,
c rifícios,
a crifícios,
s acrifícios,
o eira
l imento
r ibe,
r ouve
filhas ;
outra .
n ível
Também ,
rne l
21: 11]
s agem
men sagem
quebra d
Re de
i mina
alta s
u -lhes:
o u-lhes:
b omba
12:2 2
12:22 ]
Je iel,
Qu ã
Dize i
Quã o
< <
pera r
be la
in ves
iras ;
r vem
17:4 6
17:46 ]
u aliza
  6
Responderam -lhe:
is to.
d ote.
r dote.
ce rdote.
a cerdote.
s acerdote.
me ?
õe m
esca p
quin ta
filhos :
n terra
t ine
tornara m-se
ma cha
t ora
m plica
o mbre
entrega rá
meus ,
M inha
17:3 6
Belém ,
terras ,
#### ####
tos quia
z oa
n ele;
19:2 2
o marão
mesa s
obia s
encontra r
L on
m -nos
G B
v c
enx o
encontra r-se
cla mando
P on
☝ ️
o lho,
s car
vinha ,
r tá
ta car
t iu,
bre cha
í stes
Con h
a ltera
re presen
Fe lipe
T obias
19:22 ]
17:36 ]
p õem
b iu,
quebrad o
res pondi
u biu,
a limento
p rouve
a prouve
está t
disci p
d irige
discip lina
busc o
Conve r
M icrosof
n viou,
m putado
Man oá
pa pe
pape l
o mpass
Pé rez
a paiz
R apaiz
ora re
ca lva
ofen s
Ás ia
fla uta
p oten
re unira
faixa s
free (
ga bine
e ntriste
heteus ,
t udo.
Mine craft
ç oso
t orida
u torida
Que ila
quiser ,
reposteir o
escá rni
ponteir o
Hez r
v irão,
deta lhe
System .
ligên cia
_ 5
ben ja
declar o
des erta
cha mou-lhe
radia çã
radiaçã o
Jeoacaz ,
Jea r
Jear i
i oso,
d ila
heve us
r uição.
t ruição.
des truição.
Cria d
Criad o
i retamente
Criado r
Baasa ,
t omarei
ema=5. 3
d ,
pát i
comandan te
x box
excelen te
p user
u vido,
o uvido,
f ortes,
ref ugia
geral men
geralmen te
s ogra
donze la
lh os?
tí ope
e tíope
pí t
pít u
pítu l
Obede -
o ).
Obede- E
fixa s
idã o
b itada
n vergonh
testa r
te miam
flux o
espia s
explica r
a rni
u arni
g uarni
Merá ri,
guarni çã
guarniçã o
mora d
u ltos
Ní n
Altíssim o,
Nós ,
abominá vel
cativos ,
cresce r
é cn
t écn
rece berá
extre ma
re mos;
Cons e
Je oás,
ânim o,
VDLN 7
ce rni
gada s
is cerni
d iscerni
arras ta
o garam
lá .
companheir o
flores ce
i fiquei
insensa tos
observa r
n ções
batalha ,
visita r
concubina s
i ds
prisã o
b rilh
u beram
o uberam
res ?
c iza
r ciza
o rciza
x orciza
e xorciza
prisã o,
s ou,
pervers idade
lava r
parábo las
í ades
r íades
utensíl ios,
comete ra
Roboã o,
Benjamim .
21:3 7]
mex e
21:3 9
21:39 ]
te riam
cinqüenta .
ma x
compra d
comprad o
ga rra
ç oita
incens o.
ve rta
estende re
ma ch
bat i
filisteus ;
Abraã o.
conhe cend
Te mos
s ei,
med ita
reje itas
p uro.
o pôs
holocaus to.
liba ções
18:5 8
18:58 ]
l vimento
o lvimento
v olvimento
n volvimento
tendas ,
e nvolvimento
c ina
des envolvimento
guarda ra
18:0 4
18:04 ]
fizeram .
primei ro.
u plica
sobe ja
trabalh os
Se melha
mon te.
A lva
m ita,
t ion
u gem
pe ita
i lã
da dos,
u do;
G D
i cí
v ireis
t n
classe s
pre o
n çada
c o:
o lis
ça va
é poca
De spe
o rel
S orel
conhec imento,
r iel,
d iá
te mente,
faze res
lhe i
jus to.
e ia
u mpre
s ama
o -lhes:
d o-lhes:
n do-lhes:
ize us
r izeus
pe rizeus
n dares
C orre
res pira
ba rre
que ira
ion e
fecha da
c ós
is far
- lh
con ven
r do,
In i
n qü
19:2 8
ce der
c ron
entre ta
abism o
l tes
de ?
u ben
fen d
A mina
í rios,
17:3 7]
ores ,
v ê.
be u,
pare m
la men
iga i
t hon
ó ton
rique za
r óton
b igai
p róton
A bigai
r opôs
pan d
a ndares
Abigai l
tra nqü
19:28 ]
entreta n
r uben
dize ndo-lhes:
c umpre
o bla
r ugem
preo c
Semelha n
con verta
estendere i
a çoita
Obede-E d
Obede-Ed o
Obede-Edo m
páti o
d iretamente
Hezr o
a utorida
Hezro m
Jeari m
estát u
Microsof t
gabine te
ofens a
a tacar
e scar
estátu a
} ,
- Me
e nterra
de ntes,
o me?
t ou-lhes:
Rede n
n tou-lhes:
Reden t
u ntou-lhes:
Redent o
F IL
g untou-lhes:
Redento r
r guntou-lhes:
o tebo
pe rguntou-lhes:
otebo o
oteboo k
Asdo de
equi l
dezoit o
matad o
C hama
u tre
re ais;
sujei t
de nado.
cilada s
r denado.
pront o
o rdenado.
(freq =
Jó ,
delícia s
mercadoria s
cânta r
Bara que
this.histori co.
Ja ze
D ES
pe rder
n do-nos
ROM A
ROMA N
v ilha
ROMAN OS
o vilha
Leva ntou-se,
cust o
le veda
U zá
f icou,
c idades;
recomen da
tiras te
fe ridas
com.badlogic.gdx .
espant o
w indows
enfraque ce
quebra r
men çã
mençã o
ma va
Se de
AR COS
M ARCOS
va g
i -o,
i magina
conselheir os
Irmã os,
cí mba
ma rido.
címba l
magistra dos
u viste
especial men
especialmen te
alocar _
veis .
a cep
acep çã
acepçã o
m ônios,
de mônios,
ilas ,
l ivia
aspec t
man á
Esdras ,
i ty
quência s
de graus
esconder i
apa z
i maa
A imaa
Aimaa z
ce ;
jumenta s
Dá -me
p o);
ate -
qual idade
Pa i;
va rões
pobre ,
Sen a
Hama te
compila r
A cha
Foram ,
Labã o,
doura dos
Nos s
fê -
fê- l
otimiza d
otimizad o
bura c
burac o
Dia n
abominá veis
Leva nta-te
re e
apressa da
existe m
o ço;
a use
.java: 4
r ou-me
Her m
acampara m
clus ive,
Rúben ,
escra va
Deixa -me
u ntavam
Eliseu :
relâmpa g
T_p INT
Jericó .
ce bos,
man cebos,
5 0MB
presen te,
esconde u
espécie ,
perfe ita
princíp io,
Me rges
imens ã
imensã o
n trava
trombetas ,
e ntrava
ô me
disc r
Na a
c iosos
nuvem ,
alegria ;
19: 12]
cinqüenta ,
m -lhes
corta da
n çam
o rá,
lábios .
rebanh os,
u vesse
o uvesse
in tens
céus ;
t idas
descend o
ouvidos ;
É fes
d ira
aprende n
t c.
e tc.
estranh o,
i mais.
n imais.
a nimais.
O rien
azeite ;
ve rão,
19 ,
Ces a
Cesa r
Cesar éia
n dos,
u ndos,
ce go,
conta dos,
guia s
u deir
c udeir
julga rá
s cudeir
e scudeir
estra da
aparece ra
2 D
te !
a mea
peca dores,
confia s
pren d
jei t
jeit o
n tenda
e ntenda
i osamente
17:5 3
17:53 ]
de pois,
reina men
T reinamen
Treinamen t
use i
leva ntado
guarda .
21:5 8
prepara r
21:58 ]
l tei
reina rá
conhec imento;
carre g
i gita
capi t
be rtos
capit é
a bertos
capité is
lavra da
i bna
L ibna
k (
conse n
18:3 9
18:39 ]
s i;
m iel,
bar co,
21:4 3
21:43 ]
r -nos
21:4 0
21:40 ]
21:4 6
21:46 ]
m i,
de veria
z i,
21:4 7]
b oi,
chega m
despe n
bene f
benef i
benefi c
benefic ê
beneficê n
Estes ,
ca bei
a cabei
seja mos
rep r
liga d
ligad o
sába dos,
a conse
aconse lh
der (
n der(
re nder(
barr o
forma s
i cla
- O
r ins,
19:4 1]
cele i
face s
in va
G aia
o to,
alegra m
u rora
cha ca
de g
ped in
volta rão
cen tra
o reis
Be re
l dição,
a gita
[ F
O h
u ria
mesa .
apa g
lus t
- ;
In f
rna u
lev á
lia qu
stes .
tada ,
Z iba
Vie ra
vam ;
u rpre
perdoa r
r x
apa l
ta i,
sonh o,
manda r
b ien
Ta a
m bien
Viera m
urpre e
levá -
E liaqu
a mbien
S omen
urpree n
ma ldição,
levá- l
Eliaqu i
afa rnau
E O
Somen te
Eliaqui m
C afarnau
Ze l
Cafarnau m
vaidade ,
prata ;
repr o
Treinament o
dira m
aprenden d
h ouvesse
aprendend o
Herm o
Je fon
Hermo m
manh ece
a manhece
pand o
ce reais;
n ome?
Ini c
guardara m
conhecend o
fize rdes
i ríades
m iríades
r ogaram
( 3
a bitada
e nvergonh
pítul o
h abitada
o lhos?
escárni o
_5 .
c ompass
autorida des
fas e
Lon ge
t omarão
Je d
dois .
t ualiza
l os-ei
carregada s
- los-ei
