i n
r a
o r
t e
r e
) ;
c o
d e
a r
l o
l á
O lá
O i
e n
a t
a l
s t
d o
i c
= =
a s
e r
/ /
e s
d a
t o
r o
p o
m a
s e
i m
c a
t a
i s
t u
v e
u n
q u
a n
l e
lo at
in t
r i
i f
f loat
p u
t i
co n
c h
v o
d i
o n
t or
b l
p a
i d
m e
== ==
ã o
i z
m o
if (
( )
bl ic
pu blic
e l
s o
n o
g e
a d
co m
0 ,
o s
v er
ve c
( );
u l
r n
a p
t h
e x
0 .
t r
s a
n e
f or
qu e
u m
vec tor
in g
vector <
en t
c i
re tu
retu rn
h a
p or
v a
g ra
0 ;
s .
iz e
p ro
s ize
c l
e m
te x
( "
un k
" ,
en te
ne w
st r
po s
ca o
ic a
s p
for (
+ +
is .
==== ====
[ i
i da
i l
a m
lo co
con st
[i ]
// //
b o
a do
1 ,
ç ão
te m
th is.
i o
c e
tu ra
float >
0 f
" );
vector< float>
t (
ch unk
ra da
k en
\ n
h o
por t
te r
g u
lo g
p e
vo id
S tr
i a
es c
m in
re s
Str ing
H e
im port
i st
as s
M B
ap :
I n
pa ra
b u
He ap:
i r
v al
re n
x .
) );
te n
no me
f in
ra n
T o
ti po
l in
c ar
p r
u e
++ )
un do
t ro
d :
o u
s ,
de r
as e
ar (
T ex
N o
0 0
o l
i vo
_ t
st at
c or
com .
s u
i g
te s
de s
e st
gra d
l a
en to
cl ass
= "
n a
l u
d: :
st d::
ge t
ti on
e c
i t
size _t
< /
x ,
do s
C a
M at
ul l
ad or
stat ic
A r
ent rada
n ull
E S
al a
d x.
ti l
b loco
1 .
o b
qu ivo
tex to
f ,
To ken
p er
0 ]
i x
fin al
ad d
b e
e .
d im
1 6
n ão
ci a
u ma
T _
or m
re g
. .
lin ha
es os
\ "
//// ////
ra y
g o
el se
x 2
[ ]
! =
B loco
i on
mo v
G L
p ra
e le
" >
f un
m ente
======== ========
i le
ve l
v ar
an do
sa ida
f a
& &
ch a
< <
f al
C h
d as
l d
. size
ra r
[ 0]
f f
I d
e u
p (
tr ue
pr int
sp an
x 0,
u al
c k
p ar
) )
. g
] ;
E R
gu ra
c al
t re
co l
b a
ta m
Mat h
l ar
di v
u s
ma x
[ j
for( size_t
c ê
. get
. se
str ing
da de
ge m
f (
fal se
a u
c ul
" ;
c ri
0 )
c t
ch ar
de lo
vector<float> >
y ,
p re
ar quivo
T i
l i
po n
al tura
) ,
+ =
esc re
E n
f il
ica o
a b
E N
ch e
class ="
i co
x ;
9 ,
val or
ma da
t im
ff er
for( int
Math .
ld r
Ti po
a o
t ra
j a
m as
ma n
i ++)
to ken
esc ala
n um
p l
p esos
c u
0f ,
pu t
A R
di a
ri te
t al
f on
str u
õ es
ta o
f o
A L
en g
ri de
L o
c es
lar gura
st a
j e
x a
at i
P a
ver ride
tu lo
escre ver
if ic
( int
) .
bo o
A n
m undo
B o
O R
M o
d ic
R e
vo cê
C o
2 ,
vector< vector<float>>
le an
in ic
M A
f im
Ch unk
se m
d is
el a
m s
ra do
E x
1 ;
G dx.
| |
true ;
s (
u i
T A
es pe
Tipo Token
ma is
v i
- >
L .
s h
boo lean
u t
re a
tu al
} ,
s er
() );
\n "
} ;
co mo
C on
ra .
Ar ray
b ase
[j ]
cl u
4 ,
m ar
id c
or (
b ad
null )
R A
c tion
de n
ms g
1 ]
P ro
.g dx.
0 );
bad log
badlog ic
badlogic .gdx.
com. badlogic.gdx.
. add
F F
g l
M a
in c
p h
b i
chunk .
en d
f e
( float
M undo
1 )
im in
car reg
in el
X ,
p .
ta xa
0 x
ca n
m at
min imin
false ;
lu z
() )
] :
ca m
g in
so ma
au to
A tual
ca min
- -
s ão
to s
eng th
U til
camin ho
i te
.se t
ri z
u til
ê n
B u
c ase
. re
C ol
L ist
at ual
fon te
l ength
le t
pos i
s al
b .
g a
gra ph
va .
cha ve
.. .
h ar
x 1
5 ,
8 ,
com. minimin
graph ic
in dic
b le
p as
di ente
pa d
E _
con t
com.minimin e.
3 ,
as .
ver ific
ç ões
to tal
b y
di tor
de l
tre in
= >
== =
m en
ida de
F ile
if( !
ob ter
() ,
graphic s.
i ro
iz a
o p
ta do
di re
st an
su b
u ra
> >
1 2
i ar
in v
//////// ////////
3 2
Bo tao
I N
Tex tu
com p
log o
@ O
@O verride
R O
_ C
mo delo
tes te
0. 0f
\n ");
span >
> =
at a
ca me
i ta
m p
Textu re
ala v
ar ray
d ro
h e
</ span>
En t
j o
d or
escrever _
g .
mo st
ja va.
s ;
GL ES
v is
2 D
je to
msg _
< span
E L
im o
k .
_ escrever_
inc el
man ho
p incel
ran s
.size ();
de f
pos icao
EN T
s or
(" [
U N
d .
des en
i ma
S a
in te
p al
A l
i ra
in clu
ri va
1 );
TipoToken .
at ch
GLES 3
2 .
================ ================
bu ffer
h t
ta manho
D I
m ent
p x;
print f(
ma das
t ar
e ta
l im
f );
s )
Tex to
sa o
1 0
[i] [j]
ge t(
C ha
pro p
2 5
GLES3 0.
U I
stru tura
Ar quivo
alav ra
me m
no vo
ri a
( (
F I
F il
\" :
di r
ç a
Lo te
c as
in ha
p res
un a
G U
at t
e t
v ar(
1 00
L. t
L.t k.
f printf(
return ;
Ent rada
T é
Té ran
dro id
ar g
ver t
b al
cal cul
l er
n orm
O N
[ sp
if ica
so l
ba ck
er o
most ra
s on
# inclu
del ta
g ar
M ap
po de
ra cao
ta n
++ ;
O b
c le
is so
6 4
Mo delo
est ado
tr y
ve lo
P or
c um
di o
ra c
t rans
( new
T am
d u
ix el
pro p(
ro w
z ,
em p
an te
mundo .
ren der
i vel
or t
t y
gra diente
k ;
lo n
p la
( const
F loat
P os
came ra.
i tem
in ter
ri bu
e qu
fprintf( s,
m es
tem po
#inclu de
Ca che
List <
b in
div >
e -
j g.
to que
w h
( e
0. 5
V al
\n ",
ci dade
con s
ic as
qu an
Sa ida
T E
e w
im e
p en
ri o
D e
I A
P esos
a .
com.badlogic.gdx. graphics.
h as
pa co
v as
N orm
b rea
con ta
pro x
[ 1]
u sa
me tro
print f
res ul
" )
2 ;
Bu ffer
ado s
im ento
vector<float> &
1 f,
1. 0f
1. 0f,
brea k;
cu r
fun ction
no va
é m
am ento
co es
e ditor
P er
] [
b r
ca madas
f ;
g ador
p x
C O
pa inel
wh ile
" :
er g
</ div>
ex ec
ha der
t .
t as
th row
D O
G ra
en s
fa ce
vis ual
as c
pas so
qu er
da dos
D E
ce p
er ro
resul tado
ro tulo
se q
std:: vector<
. h
6 ,
ar ra
ci on
re tor
C A
ati va
ca mada
sp rite
1 5
io .
i an
ig n
m ento
ran do
w 0,
w 1,
B y
S tre
Stre am
lo t
" +
GL _
H UN
HUN K
cont in
droid .
l as
2 0
] ,
lo bal
A u
h os
V o
Co m
iz ador
s :
x 1,
. length
< div
E s
I D
T_ p
col una
is te
rac te
t -
ên cia
co po
con f
cri ar
j ec
so b
Ex cep
Excep tion
T O
en do
es te
i do
id ar
me ta
u do
g ro
ve tor
( c
[sp ,
a ,
f at
i )
l ist
(int )
A mostra
L.tk. tipo
S u
ren ci
cam po
i as
in o
s );
A t
[i] ;
i al
bloco s
texto ,
S p
b er
le ment
put Stream
su a
3 D
in e
verific ar(
x2 ,
I tem
P E
a ge
espe rado
f ra
p es
T ER
inic io
x )
.size ()
Ca mada
M en
a cao
al vo
by te
f re
ma p(
( x,
< =
S h
ces s
tipo _
util .
velo cidade
A cao
ck age
d ing
s im
ma p
se t
te la
while (
( dim
L u
_escrever_ tex
er os
max (
renci ador
s ó
. y
A S
R E
V er
ap p.
i or
indic e
java. util.
n u
per da
In t
Ma pa
Mundo .
di go
Re g
d ra
di st
o f
re ad
ten cao
to es
var( --
vo l
} );
( '
c atch
ca b
co ut
ct x.
es copo
id th
l s
metro s
mo s
pa ckage
v an
x2 9,
1 4
d if
do s.
ig ht
tex tura
ti dade
' )
( String
0. 0
< br
<br >
G u
Pa inel
di z
gu a
i to
ren te
c is
dia logo
lo op
o tim
pla y
se ();
std::vector< std::
. asc
1 e-
b it
bo tao
p ixel
re tro
* /
L U
Map <
OR _
at é
lo cal
s ion
ç o
. x
GLES30. gl
Gdx. app.
lon g
p alavra
pl as
s hader
un i
z e
.asc iz
an droid.
catch (
ix o
ob jeto
or i
s [
to po
w rite
( v
/ *
B it
Cha ve
auto &
bi as
do cum
e y
for ma
if orm
p >
pu sh
sob re
S ele
Tex tura
[j ];
gro un
int []
se u
4 )
In ic
carreg ar
e d
pre cis
sh ort
â n
0. 9
16 ,
a da
de fin
de re
de riva
nome ,
null ;
pon ente
prox imo
s in
' ,
B ias
I O
fa z
s so
í m
1 f
float []
in i
li be
o verride
y s
A A
B ase
N ian
Nian ir
Pa ra
cor re
cul ta
de bu
docum ent
is /
! "
0f ;
D i
Y ,
a va
ar t
ca da
col or
inv .
printf ("
ue ;
A V
E strutura
J o
R en
ces so
in stan
or ia
u _
++ ]
4 0
T I
calcul ar
de sta
desen har
x 3
" E
Gu idar
Ob jec
at ion
e p
er r
list a
pr ime
ra l
; \n"
qu ando
' ;
Id c
est á
f lo
ve is
( 1
e )
es sa
verific ar
x 0
. c
I sso
L E
Mat riz
V e
ad as
bi bl
d y
deriva da
m ui
mes mo
n ivel
se mente
2 4
D im
cl a
co digo
debu g
jo gador
s. get(
se gu
v es
ys tem
Col or
E lement
Guidar y
In t(
Reg ion
con tra
editor .
ic ion
j ++)
j á
mo do
ori gem
par se
plas ma
ti va
x1 9,
//////////////// ////////////////
Objec t
at ura
color :
f ic
fo i
indic es
pe lo
1 MB
[ 2
[i] .
a ção
b io
do u
equ al
for( let
mat riz
n b
r u
ó s
(float )
2 )
Gdx.app. log
L A
Lu z
com.badlogic.gdx.graphics. g
contin ue;
ge renciador
p riva
priva te
at ivo
back groun
be gin
gra ma
in do
ri or
tex t
" #
" [
& nb
&nb sp
&nbsp ;
I S
cons um
iza ção
m u
pa re
posi tion
qu ím
re al
string (
te rn
0.0f ;
1 3
7 ,
D ia
con stru
con te
m al
t to
ti vo
% d
. equal
. obter
2 );
> ();
C ri
Q u
S o
Vo cê
[ MA
al ign
con d
e ra
im p
in val
m ,
po ca
st o
v ida
var ->
.add (
4 ;
H O
UI .
ca che
desta car
f t
ge rar
v ent
val ue
w (
í vel
6 MB
A da
ES Q
T U
ap l
des c
dou ble
g lobal
i ,
s lot
va z
S ystem
arg um
b or
char *
d (
f p
for( const
j u
m ul
pro pa
" O
5 0
? ",
B O
con so
g en
l b
mui to
s. add
to dos
. z
? "
IA ]:
P A
Sp rite
TER IA]:
[ x
[MA TERIA]:
_C HUNK
e strutura
ix a
libe rar
lin has
posi ção
se le
sion ado
ver ifica
$ {
' );
DI R
GU AL
I GUAL
as h
m _
w idth
0. 0f,
0. 3
By Id
Col or(
TA M
at t(
en as
is ten
m (
quan to
std:: cout
string &
u so
ui do
ze rar
9 MB
Math. max(
ap p
be ta
c er
catch( Exception
consum ir
fil l
ran co
std::vector<std:: vector<float>>
t á
F on
V i
diz ado
e h
f lu
f n
g er
l ;
ren dizado
so lu
t ]
% s
( TipoToken.
A p
Texture Region
V ec
an tes
c mp
d ata
for m
h or
i ten
le x
na ble
nu cle
pe ra
pr ó
s s
st re
ten t
tim o
0. 00
GL 2
S ol
[ idc
` `
ar io
by tes
cas o
f an
fonte ,
fun c
iste ma
pres sionado
qu en
quer da
r un
re m
vector< vector<vector<float>>
0x FF
: 3
An co
bibl is/
con ver
it bo
k er
linha ,
ma ior
s ica
su per
( caminho
( t
( x
(e ,
A tencao
At t
Gdx. gl
_ V
cl i
en erg
entrada :
h id
inic iar
iz ar
mo ve
norm al
ra das
ra s
sal var
se g
7 MB
B atch
D ados
K ey
L inha
N O
V iz
Vi ew
ar ia
bo toes
comp il
ex p
grad Saida
i os
n ú
" ));
":  
- 1
.get Element
2 2
3 MB
= 0;
Bloco .
L O
System .
al t
document .getElement
ent ão
me l
o f(
on de
p il
pl es
rada :
s ();
ve z
() .
Bit map
C am
Tex t
[ x0,
_ F
c re
c z
dis po
document.getElement ById
ent re
fon t-
ic ro
l ig
qu i
s i
size of(
tro n
u r
Chunk Util
D ir
I V
P alavra
_ B
chunk );
q r
* *
- s
.g l
C H
G e
H ash
Men u
es pal
flo or(
le .
po is
pu t(
to u
v ,
vert ic
) (
D pad
Gdx.gl .gl
S e
\ r
com.minimine. mundo.
cor po
in da
ta ção
GLES30. GL_
Ve tor
a z
can vas
cha ves
cor pu
e. get
f )
f ico
pal eta
r uido
s qr
tem p
us ar
+ 1,
0, 0,
R un
U n
Z ,
a der
bu f
dire ita
espe rada:
ge ra
he ight
if( c
m .
sqr t(
var ia
vaz io
. parse
8 MB
Ca racte
M e
at o
b )
b ,
b ar
do :
el é
emp lo
es querda
n el
re t
s ig
tim e
vi ew
( a
16 ]
6 0
Con f
Dia logo
Fon t
Gra diente
Lo c
T emp
b ém
in al
o culta
pro cess
ta cao
ti tulo
( p
3 ;
A s
S O
U E
ca racte
in a
lim ite
no s
te iro
ti go
v _
ó ria
" o
. is
1 9
5 MB
C an
D ata
Fil a
M E
O r
P AR
Vec tor
backgroun d:
escrever ("
fan tas
if( tipo
j )
m icro
o .
pon to
put ("
s ist
16 ;
2 d.
GL2 0.
M em
P I
String ,
_ back
as m
com ent
end l;
energ ia
erg es
es pa
go ra
l n
mar gem
par te
s ("
s b.
sa gem
sao (
stan cia
v ia
v iz
vec 3
- =
MA X
O f(
a van
bit s
ca be
d ar
fat al
pa sta
ren de
tam bém
vector<vector<float>> &
( y
D A
D o
I R
Ma x
O tim
R ec
U L
ab s(
am ma
cur sor
dispo se();
fil a
gar o
h ist
is. read
nome _
pad r
pon teiro
push _back
qu al
s es
st p
" .
( d
1 7
1 f);
8 );
B ranco
In putStream
No vo
Ver tex
app end
at las
ce of
ck et
com. micro
instan ceof
ld p
li do
me ra
retro prop
ul timo
y ;
z );
" /
" ]:
("[ "
. map(
.se t(
0. 2
> (
Array List<
Gra d
M J
Math Util
ap enas
bor der
co .
da n
ent radas
ex emplo
hid ro
ker nel
lo te
ra m
s en
un iform
verificar _
verificar( TipoToken.
z eros
++ i)
.h "
2 0,
2 MB
B io
MJ son
O L
O ut
Palavra (e,
R o
[ t]
es paco
esc ri
espal har
ex ist
false );
in ho
l ,
pes o
pixel Branco
print ln
ra io
st art
std:: vector<float>
z )
( short
1 :
B PE
F o
FI LE
No me
Out putStream
R ol
S A
a inda
a ju
b em
c ent
com.badlogic.gdx.graphics.g 2d.
h ar(
id _
largura ,
r ,
r g
re sol
res ;
str c
t ão
to _
v ento
visual Botao
x3 0,
( saida
</ p>
Arquivo s
Map< String,
Sprite Batch
\r \n"
_ c
at .
bo ol
co s
dim ;
es se
il iar
java. io.
play er
process ar
r á
re ct
retor na
s ]
se us
te (
token s
u a
á to
5 .
Bitmap Font
E vent
MA N
Por Int
[2 ]
[i] [j];
ab ri
al g
am b
argum ent
as ,
blocos PorInt
c el
dif e
fil tro
fre q
ic k
id_ argument
inval id_argument
reg ist
sp e
{ return
( this.
1 8
4 4
A tiva
Al tura
Cache [
F un
Q UE
Ren der
Sele cao
T a
Val or(
Vertex Att
_ el
a _
an im
ar ();
c en
ca p
chunk s
ele mento
en contra
f rente
hidro g
l as.
pad ding
proximo Token
stat us
ui .
vo cab
x iliar
zerar Gradiente
{ }
' \
Ativa cao
C HUNK
Cam po
E_ DIR
In put
In ter
String .
as se
b ra
co ra
consumir (TipoToken.
f í
ri e
s /
st y
tan do
teste _
to do
true );
vector<vector<vector<float>> >
y )
. align
0 },
Ap rendizado
CHUNK _
P ixel
Ro tulo
TE X
Val or
an ela
buffer .
ca ra
de st
dos. write
false ,
fic i
ic e
in put
ma pa
mar gin
me di
proximoToken ();
quan tidade
r ;
s. size
so ft
str b
ten sor
y pe
" ))
2 6
B arra
CHUNK_ TA
CHUNK_TA MAN
CHUNK_TAMAN HO
E m
F lu
F ra
In te
MathUtil s.
N e
Per da
S lot
T re
Téran :
ante rior
c )
calcul a
co p
de cla
destacar Palavra(e,
fil ho
garo to
grad Entrada
i u
in ci
inte iro
min ha
ou t
printf ("[
r ro
re c
seg undo
sub st
v )
v it
. calcular
. end
.equal s("
0x 0
1 1
4 );
Array (
ER RO
GL20. GL_
Idc ++]
P at
P ra
Sh ort
T ES
U m
[ k
_ atual
a cum
bu tto
butto n
ci ma
com ponente
conte udo
d x
de ve
di stancia
dra w(
f er
i de
ica mente
id ="
if( L.tk.tipo
iz ado
me dia
or ig
pa i
prime iro
s istema
solu te
to_ string(
tu do
util s.
y (
ên io
( i
( nome
0. 8
3 0
Com ponente
F orm
FILE *
Textura s.
[0] ,
d is.read
eh _
fim Fila
fun coes
g ,
m ero
m or
mal ha
padding :
pil ha
precis a
v as.
', '
( chunk
. get(
==== =
Ada m
CH AV
L ar
M EN
No va
P O
ap ós
ba ixo
cha ma
cu lo
d s
de le
escala Pixel
ic ar
icion al
ra o
s.add (
va i
" ).
- 1.0f,
. texto
3 .
6 6
: :
Ch ap
Chap eu
E st
Gdx.app.log ("
L. pos
P r
R es
at las.
begin (),
cl asse
co is
con texto
est ava
inic ial
l ado
lo ca
men sagem
mo ver
num _
padr ão
par t
pro grama
re l
rg ba
ri os
y );
.size (),
================================ ================================
A t(
Arquivos Util
By te
Ca mera
J S
Otim izador
T ype
Y );
an el
ap ro
came ra
ci as
co me
den tro
en dere
grad Pesos
la c
m ú
p ela
ren t
sal vo
taxa Aprendizado
v or
vertic es
x 3,
á rio
' :
( No
. altura
. s
5 f,
C l
GU LA
IR GULA
Math. floor(
T em
\n ";
amb da
be d
bed ding
bu s
cond icao
dis play
elé tron
en sa
f ica
imp le
itbo x
l ambda
lo se();
pincel ,
pl ica
por que
str (
tipo_ base
trans form
ty ())
u v
v ir
" {
( m
.set Color(
3 )
9 3
< p>
================================================================ =====
E u
F LU
Gdx. graphics.
L on
List ;
N ão
T h
a qui
ass im
clu ir
cur so
d ;
ditor .
err or
fat or
for( float
inci pal
o ct
paco te
pos s
ro n
so u
ta mente
u se
value Of(
x ++)
x imo
( chunk.
. def
2 :
25 6
5 ;
Acao ()
B RO
Bio ma
D est
DO BRO
Fil tro
IN T
Inte ger
M eta
M us
O K
P as
Para metros
S im
To car
Un iform
[0] ;
abri r
ar ma
ati ado
eng ine
escre ve
fun ção
push_back (
reg _
ribu icao
sal var(
- 1,
- 1;
.se ction
0.0f );
An tigo
Au xiliar
D ES
F atiado
FF ER
Gdx.graphics. get
Lar gura
Painel Fatiado
S equ
T F
U FFER
b ri
bloco .
class=" coment
class="coment ">
cle ar();
conta in
de v
dim Modelo
en quanto
en são
er ta
es .
escrever(" \n
exec ()
f os
fra me
i p
jogador .
mel hor
ob j
ol hos
position :
rende riz
t x
toque Auxiliar
x );
0. 1f,
2 00
8 ;
A C
A gua
B eta
B in
C li
D OR
ER I
Jo gador
Math. min
QUE U
QUEU E_
String. valueOf(
Y ;
[k ]
\" y
\"y \":
a is
ab le
altura ,
ar r
avan car
carreg a
char At(
chave );
comp le
desen har(
es ,
fa ul
grad Bias
gu lo
h uma
lim par
lin e
ne g
pro je
quím ica
resol ver
sa í
u p
w n
( arquivo
( entrada
0. 4
0. 6
2 >
AA AA
Au dio
C ur
Ca ixa
Caixa Dialogo
ENT RO
O mo
RA IO
Ta xa
V aria
Y _CHUNK
_ S
a ce
ao Tocar
ar d
au dio
cache Lote
caso _
chunk Z
ci al
class=" num
com. uni
com.uni ditor.
d z
esc u
h ex
liberar ();
n as
pa c
propa ga
re f
rgba (
ribu te
s. length
sal va
size :
spe rado
t ,
t ica
tra s
{ 0,
ú n
"> </div>
* =
0.5 f,
1 D
< h
A b
Omo i
Z eros
_c n
a re
ar q
ca st
camadas /
can al
ces sao(
chunk. paleta
cion ado
com.micro .
con tro
cre en
de m
ex cessao(
ex ten
f i
fil hos
font- size:
if( b
inter face
l y
m l
mem oria
ol har
ou t.
per son
println ("
quen cia
s. get
std:: string
ân cia
.length ;
16 ));
</ h
C OR_
C eu
CA O
F inal
Fun cao
Ob jeto
P ON
[] []
[i] );
_ cast
_cast <
a vel
am ente
an a
atlas. put("
au ra
bio ma
c ti
class="num ">
com.uniditor. nucle
con he
con segu
conf i
cul as
f am
in ten
lo car
m erges
mat h
ou tro
p :
par â
po st
pos );
pro f
sele cao
stre am
ter ra
texto );
th is
ul a
ul ti
usa do
v ;
v id
x o
"{ \"
"{\" x
"{\"x \":
( n
.add (new
.get ("
1 0,
Bo toes
Bu il
Dest ino
Jo go
M O
Nianir :
Run nable
Sp an
T este
Tre in
U TF
[1] ,
[sp ],
\" tipo
\" z
\"tipo \":
\"z \":
_ IGUAL
_ error
al fa
ar ,
c ente
cha mada
chunk )
cri p
da des
dest ino
escopo );
fantas ma
gu al
hidrog ênio
mar ca
matriz Zeros
mem .
mo id
modelo .
n de
nome );
pl an
qu is
resolver Valor(
st ando
st icas
t bar
t p
to String
tou ch
. draw(
.calcular Chave
.re size
.size ());
0. 7
Chave .calcularChave
G RA
He ight
Inic io
Object >
P q
P re
Vector 3
Viz inha
[i] ,
a tencao
arma z
b z
chave ,
de c
display :
er ico
excessao( T_
for mat
g os
i ção
if( chunk
iten s
j un
o ,
ou ro
pare ce
pas sa
pe dra
r m
rando m
re ce
re curso
s ()
s v
ta b
tam _
ti do
vo u
á s
á vel
" ";
" D
% .
( o
(dim Modelo
1 /
6 .
8 ]
A ura
Anco ra.
Cur sor
DE F
G en
Hash Map<
O ri
P o
T );
\" },
al go
armaz en
ca pa
can vas.
caracte re
com.uniditor.nucle o.
delta ,
document.getElementById ('
ht ml
int >
isten er
m :
pa ce
run time
runtime _error
s ign
ti pos
tipo ;
to k
tu ante
uni que
visualBotao ,
á gua
( 8,
++ j)
. largura
. x,
5 )
Ch ar
Cri atura
FI CA
L AR
L istener
Math.min (
P k
PON TO
Pro n
Q ue
System. out.
Tem po
To tal
`` `
a gora
apro x
border -
cam ento
ch an
co or
endere ço
escu ro
g amma
i ;
i tos
jo go
lo ad
log ia
luz Temp
mo tor
p x,
pre en
ri b
std:: vector<float>&
ver de
vocab Tam
w 3,
x2 0,
( z
. sub
.re tro
100 %
4 MB
ChunkUtil .obter
E_ ESQ
J ava
N E
N U
R eu
R u
So cket
T ,
\"}, "+
_ ESQ
am p
apl ica
ass er
b el
class=" func
class="func ">
co d
com.minimine. utils.
ctx. fill
d ura
decla racao
e ;
ex tra
f l
for( auto&
i );
ico s
m on
m é
nú mero
ob ra
part í
sim ples
string >
te ();
ter min
tex Id
vec 4
vid or
" ),
- 16]
. charAt(
25 5,
2D (
6 4,
Buil der
Ca b
Co mp
D ist
E rro
F ;
Float (
Mem oria
S hader
Sequ en
T ela
Varia vel
X ;
ap e
avancar ();
az ul
b il
cent ro
corre ta
crip t
de ri
dis pon
do is
faz er
g );
g res
gin a
idade ,
jg. inv.
ma in
men os
ne cess
o ita
po sta
po ut
posi tivo
poss ível
prime ira
pro fun
s w
so mar
te c
this. p
tu de
z ++)
" A
' ");
( FILE*
( re
(short )(
0.2 f,
2 3
Campo Texto
Co or
E mp
IV EL
Math. random
ador .
an ima
at u
chama do
con tent
corpu s
cti vit
e co.
ens ões
g an
i <
ima gem
inte rn
la y
m ;
num ero
par tes
po u
rea te
ro u
tab ela
to ,
trein amento
x 4,
# #
( pesos
-16] !
. L
. luz
.re ad
0.5 f
6 7
8 7
> :3
Ar q
C AR
C al
D ou
Dou ble
ENT ES
F P
Mundo. Y_CHUNK
O S
Pat h
Tipo Render
V BO
[x 0]
\ \
a me
bo tto
byte []
ch o
col -
com bin
conso le.
cursor .
d x;
da ,
de pois
dic e
entrada )
gra fico
if( debug
le >
le i
le van
m á
p ,
per sist
pro n
prop rie
qu ad
ra ção
rado (
run ()
sol id
t )
ter no
this. v
y :
í veis
" uniform
. dispose();
... "
.equal s(
0.9 9
8 0
</span> <br>
Cha o
ID ENT
Map ;
Men os
NO ME
PA CO
Sh ape
a st
ad icion
am bi
an c
c x
ce ((
ci o
class="coment"> //
cri a
des co
du ce((
en ta
es (
est i
ex p(
exec u
exec ut
exten ds
for ça
fí sica
g ato
g ens
grad X
gradiente s
height :
id );
int 32
it ch
ite racao
la bel
li v
m b
m ão
nome ;
re d
ri sticas
se ja
sig moid
taxa ,
to p:
true ,
v io
w 0
&nbsp; &nbsp;
( bloco
(v ,
. /
. text
0 -
2 f
4 9MB
5 0,
</span> ,
Array Util
I FICA
IDENT IFICA
JS ON
L ;
L in
M essa
Math.random ()
OK ]
Ren dere
Sequen ce
T_p DOBRO
U R
W idth
_ anel
_ linha
_cn t
al ho
alg um
apl icar
arquivo .
botto m:
cion al
co man
com.badlogic.gdx. math
com.badlogic.gdx.math .
coor den
d _
de x
di t
el es
em bedding
en cont
gerenciador UI.
gres so
i tion
inc re
line ar
log it
mas cara
mas sa
mo d
o pera
pad rao
pincel Form
pre f
pro cu
retor no
ro l
s é
saida ,
semente ,
sv c
ta x
trans pa
ty pe
u ,
var ian
{ 1,
Ã O
í n
" <
"E sperado
% z
( GL20.GL_
( s,
. bin
. ro
.c lose();
.size ())
1 px
Caracte risticas
Char Sequence
Con text
Fil ter
Guidary :
H a
Math. abs(
Messa ge
N os
PONTO _V
PONTO_V IRGULA
Parametros ()
Re ader
Ru an
S E
S imple
[ T
[ s]
[0] .size()
[] ;
asser t(
ati ve
b s
base Idc
caminho )
carreg ar(
chunk. z
ci do
cons ul
dim Atencao
du z
elétron s
exp lo
fam il
fe char
fo ra
i den
imp lement
inic ia
iza cao
ldr b
margin -
max imo
men ta
nome Arquivo
num Caracteristicas
pixelBranco ,
pla ce
po der
po pu
por ta
pró p
runtime_error ("["
topo ,
v idade
valor ;
varian cia
ver dade
w 2,
x 8,
ç as
" }
' ).
(short)( baseIdc
* (
0.00 0
2. 0f
8 8
A d
Bloco (x,
C las
CHAV E_DIR
Cache[ indices
Cache[indices Idc++]
Com para
En try
Ex cluir
F e
Ge racao
IDENTIFICA DOR
List< No
List<No >
Mo del
N IVEL
O culta
O pen
Runnable ()
S creen
S ob
Sele cionado
Sim ples
String Builder
String []
T ra
T rans
T_p FLU
a w
c lo
cas a
ci l
class=" col-
confi gura
coorden adas
d -
delta );
den te
di dade
di g
dife ren
dit Text
dor es
e vento
er to
est a
ex pres
fo go
g ru
i =0;
i th
i tu
i) =>
id as
implement s
indices Cache[indicesIdc++]
j son
m p(
me u
n z
os .
para r
parâ metros
pro jeto
ri as
saí da
sb. append
strc mp(
sw itch
t é
tela X,
tex t-
th o
to m
to n
trein ar(
trein o
tx t
x2 1,
z a
zerarGradiente s();
" Olá
" ]
%z u
'\ 0
) ));
. data
//////////////////////////////// ////
//////////////////////////////// ////////////////////////////////////
3 3
4 .
ArrayList< >();
Botao ("
C or
Clas se
Co mo
ENT E
GU RA
Gdx. input
HashMap< >();
IN F
L )
PAR ENTES
Pa co
Pas so
Pra Id
Shape Rendere
Tam ;
Token izador
[ base
] .
_ str
_ tam
a val
a ções
amp li
ampli tude
att Pesos
b pe
bloco Id
bo dy
bo l
botoes Tam
bri l
cal e
cal or
chan ce
class=" string
class="string ">
conf ig
defin e
dire to
f undo
fre quencia
fun cao
fun ções
ha do
id ,
in st
mat é
n g
num Id
oita vas
otim izador
p ;
p ng
p y(
pos icional
pr incipal
printf("[ OK]
profun didade
que st
ri g
str str(
token PraId
u sao
w 1
w :
y ++)
z r,
( 0,
( GLES30.GL_
( byte
( l
( sem
.retro prop(
A O
Anco rado(
Au to
Con te
Es paco
FF N
FI M
File (caminho
Lo g
M IN
Mat ri
Math.max( 0,
N um
Norm al
P ar
P v
Rol amento
S ;
Tex t(
V ER
V is
[ 3
_ fim
_el 1
bo Id
c .
chunk ,
ci ty
cl ick
com.badlogic.gdx. G
deri v
dif f
espe c
fo co
fun cion
g pu
if( p
instan cia
ma g
no ;
nova _linha
p ia
partí culas
propaga ção
push (
qual quer
ran sp
ran te
rem ;
t );
tam Slot
v ist
var(-- ouro
vo lu
x1 9
É poca
áto mos
' "
( 0);
- 1)
- 8
.g lobal
//////////////////////////////////////////////////////////////////// /
0.9 f,
1. 0
100 0)
An droid
An droid.
B 5
Bloco. numId
Cab ec
Conf ig
Conte udo
E nable
H o
M ini
Open Simple
OpenSimple x2
P OR
Per sist
Reu so
S er
Sob re
T ime
Th read
Y )
a ca
a ten
an cora
c ;
c é
cab ec
com.badlogic.gdx.G dx;
constru í
dim );
document.getElementById ("
e );
ex terno
fin d
form er
fp b
gin e
hist ória
if( no
k ey
l ing
le ft
m i
mente ,
min i
mú sica
ne m
o p.
painel Botoes
pes so
qu at
se cao
st ar
var i
ver so
vol ta
w 5,
{ 1.0f,
ó g
! !
" \n";
%d ]
0.3 f,
0xFF ;
3 6
4 8
6 3
8 0,
A D
Base ,
Bloco.numId s.get(
CO L
E X
En gine
F undo
G SA
Ge renciador
H AS
J anela
LAR GURA
MJson .
MJson .obter
Nos sa
PAR EN
Por Bloco
S et
String >
System.out. println("
T R
Trans former
[ x29,
[idc ]
_ teste
_escrever_ hex
ab erta
b t
bits PorBloco
bo m
c ó
cente r;
conf ir
d á
delta )
dis (
dos.write Int(
e poca
escala Y
fe ito
float [
format o
gra var
if( i
if( v
inter pre
invalid_argument ("["
ix map
k e
lb V
linha _
lo c
lo camento
ls V
m ia
m us
main ()
maté ria
o k
ob je
para m_
pera tura
person a
po w(
public :
re pe
regist ra
res pon
s endo
se res
soft max
sprite .
tem peratura
ten ta
ter re
un s
valor );
viz in
y aw
áto mo
%d \n",
%s \n",
( 1.0f
. Texture
. att
. begin(),
. rotulo
4 f
5 00
A ctivit
AR RA
Ab solute
Absolute Path
As set
At ribuicao
B a
Bu ff
Buff e
Buffe red
Do wn
Event Listener
G O
Gdx.input .set
Int ();
L a
No ite
TEX TU
X A
_ AL
_B UFFER
al gu
al ha
ambi ente
atual iza
ba quat
biblis/ camadas/
bloco s.
c tor
ca imento
camera. posicao
class="string"> "
co s(
conf usao
cor te
delta ;
des cri
dis.read Int();
f le
fici ente
fonte Texto
g ente
g le
ico .
il l
iz on
java.util. Array
l an
m ica
m is
men tu
mov imento
na da
nú cle
o x
p )
p tr
pa gina
painel Menu
pesos ,
pincelForm as
pl ic
pon tos
por tacao
prop( entrada
ra di
s +
s ar
s cript
sa be
saida ;
saida [i]
se qu
ses sao
si lon
sp ,
t ;
ta ck
tes tes
transform :
tre m
ulti ma
var(-- verde
"[ ERRO
%d] \n",
- 1f,
.add Ancorado(
.g sa
.is Emp
0. 1f
1 ];
10 px;
12 8
2 1
3 );
3 2,
4 6MB
Bin d
Byte Buffer
C ar
Cache ;
Col una
Coor d
D ro
Di rec
E co
Flu tuante
Gdx.graphics.get Height
Ha lo
M in
Matri x
Me dia
O p
Pro gresso
R E_
R a
S _
S ty
Sh in
TU RA
To que
U sa
Val ue
VertexAtt rib
argum ento
arquivo s
bo x
campo Nome
can do
coluna _atual
com por
console. log
conta dor
contain s
cop iar
de ira
desenhar X,
dist ribu
div in
do ,
escala X
famil y:
fatal ("[
font- family:
ge tacao
grafico s.
if( id
if( strcmp(
int [
it as
la te
left :
local X
local Z
luz Vizinha
most rar
msg_ nova_linha
ne d
ne t.
pos so
pr é
pro cesso
prop( const
propa g
rac ter
s b
s r
s y
s. put(
se j
sig ned
std::vector<std:: string>
su as
tan h
this. m
ti r
tr im
transpa rent
um Menos
us ando
v á
var-> tipo_base
width :
í tulo
( 1,
( size_t
(" u_
(bloco s,
(e )
)); }
- Engine
-- -
.length ()
.re ct
.set Uniform
2 ]
5 );
8 9
ARRA Y
C ENTRO
Ca be
Conf ir
Dados Bioma
Eco -Engine
F im
In fo
Inic io.
Item ,
L. fonte
L.tk. lex
MAX _
MJson. pra
O s
Perda :
Pro ximo
Sa ir
T H
T er
TextureRegion (blocos,
Tra ce
[ f
[ x2
[0] );
_ RE
a .read
a fe
ab solute
alav ra.
an gulo
aten ção
atual izar
canal Entrada
chave ">
class=" chave">
co de
constru ir
contains Key
cor es
desenhar( pincel,
dispon ivel
ep silon
es p
escala );
escala ,
espa ço
est ou
f .
faz endo
g ;
gu ar
h ;
i va
int32 _t
inv .rect
lu gar
meta Temp
modelo -
mul t
n do
n é
na o
no ite
nu v
or e
os ,
p ha
para metro
para metros
pe quen
posicao .z
propag ar(
que b
rá p
s W
se tor
sign ifica
so lido
tam ento
this. b
to car
ul ar
un signed
vec 2
w 4,
z ;
ão ,
" -
" Oi
"} ";
# pra
#pra g
#prag ma
(byte )
(re interpre
(reinterpre t
(reinterpret _cast<
. push_back(
.re duce((
0 _
1 ));
1) :
10 0,
2D ,
3 >
32 ]
4 :
5 1
6 9
</span> (
? !
Botao Dpad
C L
Ca da
Cabe ca
D RA
D es
DI M
Di re
Di retor
Diretor io
File OutputStream
I gual
L. coluna_atual
L.fonte [
L.fonte[ L.pos
Loc ation
Lon g
M ine
Math. sqrt(
Message ());
Mini Mine
NIVEL _
OR _C
P RO
Pro gra
Progresso :
Run time
Sty le
Su ja
TEXTU RE_
Taxa :
Ti tulo
` );
a cor
am p(
ap rendizado
arra stando
at ribu
b arra
bu lá
bulá rio
ca bulário
carreg ado
ce u
char* >(
chunk s.get(
ci ência
cl amp(
co locar
con di
conso me
content :
conver te
d in
da dos.
dife rente
en tidade
est ran
faul t
g ri
g un
gerenciador UI
h );
h itbox
i b
ific ar(
j anela
ling ua
m ã
medi dor
mo l
mo mentu
nome_ fim
objeto .
on ce
orig inal
pa res
pincel .setColor(
pos su
proje cao
prop Lote
pu lar
r icao
re move
re uso
s [i]
s an
se ed
sin (
strc py(
sty le.
su cesso
te ri
ti co
un ca
usar Bias
valor ,
w zr,
z ero
} };
í on
" você
"# FF
( NOME
( linha
( long
(v 1):
- obra
. prop(
. tipo
.sub string(
/ 1000)
0 %
0xFF FF
2 d
3 8
4 ");
4 1MB
4 5
6 ;
< button
</ button
</button >
A gora
An ima
Atual );
C P
Can cel
Cha mada
Compara cao
De cla
Est ado
G amma
Gdx.app.log (NOME
Gen erico
Grad Generico
Inic ial
Inter face
N or
NU M
P on
S TA
S U
S el
S tack
SpriteBatch ;
Stack Trace
StackTrace ();
Viz inho
[2 ],
[i] .size();
_ DIR
a. write
al ar
buffer );
c y
camera. position
campo C
chunk X
cl ar
cli ente
com.badlogic.gdx.graphics.g2d. SpriteBatch;
coman do
come ça
comp at
con ten
conso le
den sa
dev ice
e. print
e.print StackTrace();
en tação
encont rar
ent ar
erro _
es ca
est u
f is
fl or
frame _tam
g sa
gl .
he ad
hor izon
html >
in compat
in dex
ing :
inte ra
java.util. List;
java.util.Array List;
lei tura
liberar ()
log os
ma deira
mem ória
men u
meta de
n unca
or ,
otim is/
pesos [i][j]
po cas
preen ch
pro j
r is
r vor
re la
s 0
s te
s.add (new
sW ith
sa ber
slot Selecionado
t inha
terre no
texto )
th read
this. iteracao
ti t
tipo (
token izador
token s.
trein ador.
usa da
x ima
Ç ÃO
á rvor
ên cias
ô n
' #
( shader
+ "/
-- )
. put(
... \r\n"
.resize (
0.0f ));
1.0f );
1/ 20,
2 f;
20 px;
3 :
4 ','
AL TURA
ARRAY _BUFFER
ARRAY_BUFFER ,
Al vo
An te
ArquivosUtil ",
BO OL
Bloco (
Bloco ("
Bloco .add(new
Bloco Transformer
C ON
Car reg
ChunkUtil .def
ChunkUtil.obter Bloco(x,
D is
E le
EL U
Es q
F OL
FOL HAS
G lobal
Gdx.app.log(" ArquivosUtil",
I ma
Op coes
Or der
Pos ition
Pro grama
Pron tos
R el
TES TE
T_ MA
T_ MEN
T_pDOBRO )
T_pFLU )
Token (TipoToken.
Usa ge
V AL
Z ;
\" FOLHAS
] ",
_ ptr
_ tabela
_ptr <
a -
a cesso
a ch
a pa
al is
an d
are st
aval iar
bo ard
botoes Dpad
cabec alho
ces sa
ch e.
chunk. blocosPorInt
ci r
compor tamento
const antes
construí do:
contin u
de .
dec im
decim al
defin ir
den do
desen ha
desen vol
dim ensão
dimModelo );
e q
escala ;
ex iste
ex per
fantas mas
fe ren
fici e
func s[
g as
grad E
gu e
h ec
h ref
href ="
ic lo
id al
is tem
is ó
iten s[
le ta
lingua gem
luz Atual
ma ke
mo mento
mol é
n on
ou tras
parâmetros ]
pos ,
qu ase
qu ente
s as
s idade
saida .size();
seq Max
stru ct
tam_ tipo(
trein avel
unique _ptr<
var-> pos);
vector< int>
ção ,
" eu
" re
% ld
( origem
(( char*
((char* )
(dimModelo ,
* o
+ "
. ruido
. y,
.c reate
.parse Int(
0. 1f);
0f );
1 0;
1e- 8
2 9
3 d.
4 7MB
4 ]
</span> );
= 0.
An im
B U
B ill
Bloco Mundo
Cabec as
Con tent
Con texto
Dim ensões
E ditor
Ex portacao
Filtro ;
Fo co
H itbox
Ho tbar
INF ERI
In vent
Integer .parseInt(
LO CO
Lo cal
M es
Mo d
No Atribuicao
O P
Rec t(
ShapeRendere r
T_ V
Texturas. atlas
Texturas.atlas .get("
Vo cab
[0] [0]
\ t
\"z\": 0,
_ asm
_str ());
a f
a mostra
a pon
arquivo )
ativa cao
att( float
bil idade
bio mas
border :
buffer. linha
bus car
c ]
c p.
cha madas
contin ua
ct al
có digo
dados Prontos
de fault
de ix
di ent
entrada .
escri tor
espe cial
ex t
f ile
f lex
fic ar
fil es.
fim :
fle x;
flu sh
for te
funcs[ fn
gra nde
h ,
h um
hist or
if( verificar(TipoToken.
itbo x.
l es
lo ader
melhor Par
mem _teste
mo b
n am
ne _
num Parametros()
obje tos
obter Chunk
ol ha
or dem
pincel .draw(
pressionado )
proximo Id
ro no
s Hotbar
s ens
se i
sem pre
sim il
stan te
std::vector<std::vector<float>> &
t ões
tam ;
til es
to da
to k.
toque X,
tra tar
uso idal
ve is.
ver sao
ver são
view port
vol at
á u
ú l
ún ica
" biblis/
" void
"#FF 69
"#FF69 B
"#FF69B 4");
"></div> <div
( 2
. Ne
. liberar();
.Ne arest
.Texture Filter
.TextureFilter .Nearest
.h >
.ro data
00 00
1 },
1] ,
5 12
5 4MB
8 )
;\n" +
================================ ================
A I
Cache[ vert
Cache[vert Idc++]
D R
DI RE
De pois
Decla rado
EL 1
F ace
Fe char
Flu xo
Fra ctal
Gerenciador UI
I TE
Input .
M ana
M as
Mana ger
Mat .
Math.random() *
MathUtils. rando
MathUtils.rando m(
P ad
Qu ad
Su baquat
TAM ,
Texture .TextureFilter.Nearest
TipoRender .
Tokenizador BPE
X Z
[ ${
\"FOLHAS \"},"+
_ nome
a )
absolute ;
al e
aplicar Matriz
armazen a
at ô
backgroun d-
bo tão
boo t
c ,
c iclo
cam pos
ci ent
cli p
cli que
clo se
cois a
com.minimine.mundo. blocos.
compil ador
constru ctor
corre to
cur rent
cé u
de sej
des vio
dim Saida
dim ]
direita );
el as
elemento s
en ti
esquerda ,
estrutura s
ff n
flush ();
ge racao
ge ral
gerenciadorUI. processar
id s.
ida des
inv á
isten cia
l óg
label >
lb Atual
lb Nova
le ve
levan cia
lo s
ls Atual
ls Nova
m )
mo u
mu dan
no Chao
novo s
nuv ens
obterChunk (chunk.
pincel Texto
pou co
re comp
s.size ();
secao ("
ser vidor
sin al
st m
std:: string&
sub s
ti ve
tit le>
token s.add(new
umMenos Beta
v imento
valor _
valor es
verificar_ stm
vertices Cache[vertIdc++]
visual Janela
volat ile
width ,
{ {
} ]
í st
" H
" _
' -
(dim ,
- gra
-gra dient
0); \n"
0. 1
0.4 f,
13 8,
16 )
2 (
2 0;
3 00
50 %
6 ");
60 MB
8 px;
9 8
</h 2>
BU G
C I
DE BUG
DES >
Dados Criatura
E stre
FP B
File (
Fra me
L e
L este
La y
M ENT
M L
M erges
MA DA
O n
Otimizador >
Per to
Pro jeto
Rec tan
Rectan gle
Runtime Exception
S ul
Su b
System. err
System.err .
T ransp
TAM _CHUNK
To ast
UTF -8
V ol
_IGUAL :
a um
ab re
ale at
at ra
atu ra.
b ro
b. ne
be for
bu ra
bus ca
camera. up
cap tura
ch ar(
col un
com para
com.badlogic.gdx.graphics.g 3d.
compil ar
con tem
d 0
def Pos
desc ricao
di os
dire cao
dire tamente
dis se
divin os
e co
e ixo
e.get Message());
emp ty())
encontra do
es tes
escalaPixel ,
esperado )
f la
g ap:
g on
i mada
if( y
incompat íveis
incre mento
ini Pesos
ix as
j <
j =0;
ler Comparacao
linha )
m t
margin :
msg_ tipo_
mul ti
na Agua
ne gro
ne u
null );
or da
pa p
posicao .y
pro cessa
proprie dade
q ,
re quest
s b,
so m
somar Vetor
st as
subst itu
tamanho ;
ter mo
tipo ,
toque Y
tra bal
true )
udo u
ui. jg.
uni verso
unique_ptr< Otimizador>
v );
v en
vector< vector<vector<vector<float>>
vector<vector<vector<vector<float>> >>
verificar Perto
vert s.add(
{ \n"
í fico
í p
" esperado
' =
( Chunk
( b
( l,
( tipo
() .set
- se
.addAncorado( botao
.isEmp ty())
/ =
0 ));
0 :
3 5
7 0
< meta
A PI
A le
Anim ation
Ante rior
Bloco [][]
Bloco[][] []
Bo o
Ca madas
Cal or,
Camada Atencao
Cl ass
Contexto Geracao
Dim ensão
En vi
F az
G a
Gdx. files.
H T
I ten
Invent ario
L ON
L arg
L una
M I
Mat. floor(
Memoria Vetor
MemoriaVetor ial
N UL
O este
OR_ IGUAL
Ori gin
Paco te
Re LU
Rol avel
String (
T e
TI C
T_p INT
Type face
Um idade,
X )
_ a
_B LOCO
a :
a que
aju dar
al tern
an tigo
ap ren
at ten
ati vas
audio .
b. eq
befor e
ber to
bo tões
body >
buf .
c m
ch ec
chec k
chunk X,
chunk. luz
cia is
class=" codigo
class="codigo ">
com post
com.badlogic.gdx.graphics.g2d. BitmapFont
com.minimine. graficos.
con hec
d ri
desc _tabela
desej ado
diferen tes
dis positivo
do t
editor. motor
em bu
en try
er ,
escopo Atual
ex ce
f put
f };
fn :
frente V
head >
ho tbar
ho w
i t(
im por
in ser
inicio ,
iz ando
java.io. File
k )
largura Botao
lig ações
luzTemp [idc
margin- bottom:
me io
men or
modelo- 0-
mundo. chunks
n arra
no t
num_ funcoes
o pa
per s
pesso as
posicao ++;
recomp ensa
regist ro
render .
res posta
ru z
ruz ada
simil ar
sin usoidal
so cket
stan ce
te ra
tex s[
toString ();
trein ando
trein ar
u es
v [i]
val ues
valor .equals("
ve m
vizin hos
w 9,
y +1,
á rios
" \n");
" var
"# 64
"#64 B5
"#64B5 F
"#64B5F 6");
"E u
"Oi ": 
"Olá ": 
"[ DEBUG
"[DEBUG ]
"re lu
"{\"x\": 0,
( nome,
( √
(√ )
.re place
0.6 f,
0.8 f,
0x0 F;
1.0f )
16 ];
19 93
1993 7
3 "
4 2MB
; "
< !
AAAA AAAA
Ada m(
B UFFER
Bloco ;
Boo lean
C LU
C ap
CHAV E_ESQ
Chunk (chunk
D ensa
DI V
De faul
Defaul t(
ES PACO
F re
Faz endo
Fil ho
Float .parse
Fo ca
G ,
IO Exception
Ima ge
Input Pro
Input. Key
Input.Key s.
Item Config
Largura ;
List a
ME TA
Ma is
Mundo. obter
Nor te
O C
Or Default(
Origin al
PARENTES E_DIR
Painel Rolavel
R _
S em
Short ArrayUtil
So em
Su per
T OR
U AR
U ma
UL TA
V EL
Vol tar
[ fimFila
[fimFila ++]
[i +
_ vetor
a conte
aju da
al ém
an ti
at rá
b lo
base ,
boot loader
bril ho
c ++)
c res
cacheLote .
co u
col h
com.badlogic.gdx.graphics.g2d.BitmapFont ;
com.micro ;
construir Vocab
cor Ceu
cor ren
corpu s);
cri atura
cri ação
da do
de caimento
de tal
e mo
e pocas
eng in
estado ,
execut ar
f u
fal ha
grad Gamma
h á
hado w:
i ando
i se
ica ,
ico ,
id ;
in correta
invalid_argument ("
it ar
ix ed
iz ados
java. n
java.n io.
k h
l en
liv re
ls l
m [i][j]
m il
m udou
mo use
mob ile
mt 19937
n en
n x
non e;
o o
opa city
p ass
passo s
pe sta
per gun
pil ar
plasma ": 
próp ria
r b
re ira
re le
reg ,
s ())
s 0,
s [i].
s( linha,
s.get OrDefault(
sobre vi
ss can
st ra
su ficiente
t f,
tam );
terra _
this. histor
this. y
tipo Declarado
us :
var(--ouro -
varia veis
vector<vector<vector<float>>> &
view .
vir tual
ção :
ções :
é ": 
ín dice
" \n
"[ERRO ]
'\0 ';
( chave);
(dimModelo );
) :
. desenhar(pincel,
. txt
.re move
.setUniform f
.setUniformf ("u_
0. 9,
4 3MB
5 f);
5 f;
< float>
>> >
AL MO
ALMO >
Activit y
Ancora. CENTRO
Ap plic
Applic ation
Ar ra
B B
B orda
Cancel ar
Caracte res
Color .
D );
D Norm
D el
Del ta
Do mo
Dro pout
E di
Float Buffer
GLES30.gl Bind
Hash Map;
I TO
L ab
L i
Lab el
N a
No Chamada
OR_C ENTRO
Ob j
OpenSimplex2 .ruido
P AL
Pat tern
Pos icao
Pos icional
R an
S IV
S al
So m
T :
T AL
T estes
TEXTURE_ 2D,
Texto :
Token s
Toque (
U V
UR L
V A
Ver t
Vis ivel
[ 0
[ x1
[ x1,
[ x19,
] );
_ real
_C A
_C AR
a vi
a í
al mas
alvo );
as pas
b at
b ranco
b x
b. ge
bloco s)
border- radi
border-radi us:
c ro
car ga
caracte res
ch er
chunk Z,
col is
colun as
com.badlogic.gdx.graphics. Texture
con ec
confir mou
cri atura.
ctx.fill Style
cul to
d 0,
dan do
de u
default :
derivada S
dialogo Confir
ele ment
em ;
entidade s.
err or(
escri ta
estado s.getOrDefault(
f close
f ir
fe itos
fer ior
feren cia
fila Luz
fim ,
final ly
fir st
fonte .draw(
forma ção
fí s
g ir
ga me
go sta
gra vidade
h ando
h i
idc Base
iden tidade
ig o
inte ira
invalid_argument(" Dimensões
isó dio
item .rotulo
jo gos
k ++)
k k
lo ss
m ist
mel ho
mem. salvar(
n ativa
no mes
núcle o
o ver
obj ,
ol ho
opacity :
ou tra
pa use
pode m
pro b
proje tos
pré -
pu l
re st
rig ht
ro m
s _
s how
saida Dim
segundo s
sen tido
ser á
sp l
t ri
te d
tex t.
texto s
tion <float>
to cando
to das
toque X
trans late
valor )
values ())
var-> eh_
y ing
zeros (dimModelo);
água "
áu dio
ê m
íon s
"o lá
' ';
' 0
( w
(" ,
() {
(c );
(short )
- item
- x
-item s:
-s pac
-spac ing:
. </p>
. asm
. b
. clear();
. png
. trim
.get AbsolutePath
0. 15
0.99 9,
0f )
1 9,
1e- 8,
1f )
3 f,
:3 "
<h 2>
Al t,
Al va
Bloco Estrutura
Buffered Reader
Camada Posicional
Caracte re
Ch at
Chave.calcularChave (c
DIRE ITO
E );
E poca
EL E
Ent ão
Es copo
Ex ec
F ER
G E
Gdx.app.log ("[
Gdx.graphics.get Width
Gdx.graphics.getHeight ()
H A
H in
In dice
InputStream ;
LON GO
Lay out
List< String>
Meta Mundo
MiniMine /
Mus ic
N ú
Otimizador (
P ERI
P ixmap
Pad rao
Pon to
Pr incipal
RAIO _CHUNK
S D
S in
SU PERI
Ser vidor
Span (
T_ INT
Trein ador
Trein amento
U S
Ve getacao
VertexAtt ribute
Vo cabulário
X avi
Z )
[ 256
[ ^
[i] )
_ distribu
_ unique
_unique <
a gua
align -items:
android. view.
aprox imada
aproximada mente
ar idade
arg v
at amente
att ribute
bloco _
box -s
ch ado
ch u
cl ado
class=" sessao
cod ificar(
com.badlogic.gdx.graphics.Texture ;
come ç
cont ém
conver ter
ct x
dere d_
des conhe
des locamento
desenhar Y
di an
dic ion
disponivel _anel
div is
dra w
e ,
e ditText
e stat
end (),
engine ;
enti dades
erro :
espe ra
ex or
ex plica
exist s())
f r
fe z
flu xo
fonteTexto ,
grad Beta
grad Norm
h (float
i gual
ia o
ica do
in fo
in stru
intern al
isten te
ju st
jun to
k dir
l .
l idar
l x
le x,
length ;
let ter
letter -spacing:
lin e-
linear -gradient
m ix
m kdir
m p.
make _unique<
mú s
n atura
n ível
na v
norm 1.
o pe
olhar Proximo
or dered_
over flo
painel Opcoes
pers istencia
pro du
pro te
prop Mapa
prop(entrada );
quad ro
quím ico
ra dia
ra g
right :
ro la
s.size ()
sWith ("
sa dos
sa ir
script >
so ,
so f
soft max(
sp ec
spl it
sscan f(
subst ância
tan to
tax e
taxa Amostra
tem pesta
this. dim
tratar _
u int32_t
um idade
un ordered_
usado _anel
va mos
val );
var(--ouro- escuro
vez es
while ((
y Chapeu
y ][
" ar
" camadas/
"relu ",
"var ying
# 0f
'0 '
( -
( h
( pos
( seq
( total
( unsigned
((char*) &
() ));
) {return
). tipo
- do
. dadosProntos
. mini
. x;
.reduce(( s,
0,0, 0,
0.0f },
0x 40
1 >
1.0f ;
10 24
100 );
3 ");
4 0,
9 5
< a
< st
</ a
</a >
A tivo
AI XA
AV RA
Adam W
An tes
C le
CH E
CLU SIV
Can vas
Cl ick
DO ,
Dis able
E la
EX CLUSIV
EventListener ("
FI DE
File(caminho );
Foca -do
GL _C
Gdx.app.log(NOME ,
Gdx.files. internal
H and
HT ML
In v
Inicio. externo
Item Botao
L 2
L IN
L ine
L.pos ++;
Menu P
MenuP au
MenuPau se
Mundo (
Mundo ;
N ame
N asc
Objeto (
P al
P lay
PAL AVRA
Pas sados
Pra Token
Pro jec
Projec tion
Projection Matrix
Q ual
R I
Re ce
S or
Som ("
Sor el
T_ IGUAL
T_p CAR
Token (
U ER
VertexAttrib Array(
Xavi er
Z ip
[ _escrever_
[ pos
[f ][
_ caso_
_F UN
_caso_ fatal
_t re
a );
a ;
a ga
a qu
a vis
acum ul
ador ;
al ,
al pha
altura );
android. os.
ao Sol
apon ta
array ,
array s
ative ;
atrá s
b y,
b. render
ber ta
bin ar
c lose();
c set
camera. combin
camera.combin ed
camera.combined );
caminho ,
ch ão
char*>( &
chunk. bitsPorBloco
clu í
cois as
com.badlogic.gdx.math. Vector
com.minimine. entidades.
construirVocab (
cores .add(new
cri ado
cri sta
d 1,
d B
de no
desenvol vimento
dimAtencao ;
dire ction
div ino
e b
ele tro
en code
es :
est ar
est ão
exor c
expres sao(
fra g
g ás
gera ção
grad ,
grad Ativacao
gru po
gu a.
ho ver
i boId
ib ir
id PraToken
if(debug 1)
ini ti
initi al
inv. itens
inval ido
is ,
is s
ite ra
item Flutuante
iza da
je ta
l z
lar g
lim iar
linha .charAt(
lo op.
log (
loop _
max _
me do
mes ma
mus icas
nome ))
olhar ().
outro s
pe gar
pen sa
port ar
precis o
pref ixo
pu ro
que m
ra ios
radia ção
re pres
re size
rel ative;
res [i][j]
rio ,
s ++)
s 1,
s n
se para
slot s
so s
soma ;
switch (
sé culo
t ++)
ta da
ta va
tem ente
testes Passados
this. pos
ti o
tipo )
va do
value ="
velocidade .y
vertic al
x +1,
x 5,
{ 0.0f,
ân cias
ç os
" .equals(
" como
") ");
"> </
' \n
' ]
( _
( texto);
( token
( x)
(pesos .size(),
(x );
) *
+ 1
- o
. att(
. class
. push(
. start
. style.
.add Som("
.get Data
.get Region
.set( x,
0.000 1
1 -
16 );
2 Fractal
2. 0
3 6MB
3 8MB
5 f
5 px;
50 MB
6 0,
6 7MB
9 f,
: </p>
< c
</span> .
A berto
A ction
AR _
Animation Frame
B L
C ruzada
Con current
DES C
DR IV
DRIV ER
Direc tor
Down load
En tidade
Estre las
F AL
Float ArrayUtil
G et
GLES30.gl Get
Ga ia
Gdx.gl.gl Enable
Hin ata
Jogo .
L.coluna_atual ++;
Lin k
Lote Norm
M ulti
Math.max( 0f,
Mes h
Or tho
Persist ,
Play er
Po inter
Ran k
Re tor
Rel ativo
System.err. println("
T ;
TI LE
TO PO
T_p BOOL
Th row
Throw able
TipoToken. IDENTIFICADOR
Téran ,
UAR T_
Usage .
W ri
Wri ter
[ 5
_ PA
_ b
_ ler
_distribu tion<float>
a os
a po
a rea
ab solu
aca bo
adicion a
an os
android. graphics.
aoSol tar
ap render
ar ência
atô m
b ás
begin ();
bibl io
biblio te
bit s)
bl k
botoesDpad .
buffer ,
byte [
c at
c bz
c p
c x,
c ós
ca do
che g
check po
checkpo int
chunks.get( Chave.calcularChave
clar o
class="sessao ">
co loca
codigo .charAt(
componente s
consul tas
conver sa
cor Fundo
da :
de la
des se
desenhar X
dia logos
dir P
dri ver
dro pout
du as
du rante
e g
e rente
e vi
ele tr
en q
ente n
ente nde
entrada _vetor
esperado ,
esti ver
execut ar(
fa vor
fe ita
fonte ;
g reg
gen (
get .
gra m
groun d
i ));
i --)
if( t
ific ar
ific ial
impor tan
iniciar ();
inv. slotSelecionado
itens[ slot
ja va
java.util. Map;
l )
l ida
lac un
lacun aridade
lambda );
lerComparacao ();
limpar Diretorio
linha Atual
log 2
luz Sol
m m
m_ device
ma p.
margem V
mult Matriz
mã e
n )
n ative
nivel Atual
nome )
num_ tex
nuvens Pos
on click
p );
p cao
paco tes
pe ga
pen sou
pia Cruzada
pixel s
player .x
pr im
pre para
pre ver
preench imento
pro bs
pro va
procu rar
proprie dades
pró ton
qu es
quím icas
rando m_device
re di
request AnimationFrame
res [i]
retor ne
retro propagação
ri to
ron ment
ráp ido
s.put( chave,
s] .
saida );
sem bl
sp r
taxa );
te oria
this. canvas
this.iteracao ,
tor io
u su
varia cao
verificar( resultado
vi ar
while( L.tk.tipo
x2 2,
z +1,
" </span>);
" attribute
" vazio
"E rro
#0f 0;
%s ",
( chave
( double
( ou
( programa
( semente,
( textura
(" /
(" mem_teste
() .get
(saida ,
* T
* nome_fim
, ],
- 3
. empty())
.c _str());
.end (),
.get Text
.luz Suja
.retroprop( grad
.s pace
.set Text(
0. 25
0.5 f);
0] ,
0x F;
1 ",
1 0);
1 5,
1. 0);\n"
2 ",
3 4
4 8MB
4 D
5 0;
5 6MB
6 1MB
:: before
< std::string
= 0,
Ar ras
Arquivo );
Auto Rolamento
Botao 2D
C erto
CAO ,
CHUNK_TAMANHO ;
CO ES
Color ;
Comp leta
Cri ar
D _
D ado
DEF _C
Dire ita
Director y
ELU (float
ENT E_
Em bedding
Entrada Estrutura
Est ú
Event .
I ENTE_
In stance
K E
L I
L.tk. lex,
L.tk.lex );
Linha ,
Link ed
Luz Completa
M ar
M ira
Ma x,
Math. cos(
Mem N
Mo ve
Mo vel
Mundo.Y_CHUNK ;
Mus ica
Mus icas
N AO
Nossa ]
Nú mero
O PACO
OC ULTA
OR_CENTRO ,
P en
PAREN _DIR
Qu a
Qua tern
Quatern ion
R .
Res ul
RuntimeException ("
Shader Progra
Shin ig
Su a
TO TAL
TU S
Thread Local
V O
Z ero
[ o
[^ ,],
[i] ));
_V ER
_asm );
_el 0_
a cima
a gem
a pos
ab erto
ab stra
aca ba
acabo u
algu ém
altura ;
android. w
android.w id
anterior ,
ao (
ap rende
apl ic
ar( String
at ing
atu re
b nz
background- color:
bias ,
biblis/ otimis/
blocosPorInt Antigo
c bnz
c p(
camera.up da
camera.upda te();
carregar _
cent ral
ck ;
cl us
col che
com pac
com.minimine.mundo. Mundo;
com.minimine.mundo.blocos. Bloco;
compost os
con ce
con d.
cons ide
console.log ("
consul ta
d X
dados Face
de ,
de g,
de pen
de termin
derivada Ativacao
desenhar( SpriteBatch
dim ensões
dis( gen
do .
do ura
doura dos
e. consumir
embu tido
entrada Dim
exist ir
expressao( s,
f ),
f us
face Id
fer ra
filtro s;
fo pen
for( String
fra mes
gerar _
global X
global Z
gra de
guar da
h ã
ht tp
http s:
https: //
i con
i ria
idc Nossa
if( e.
if( modo
if( strstr(
if( this.
if( token
ig no
il um
in ver
incorreta ");
indic e.
inicial izacao
inv.rect sHotbar
inval ida
invá lido
k ,
l y,
le tra
ler p
li dos
limparDiretorio ("mem_teste
lsAtual )
luzTemp ,
luzTemp[idc Nossa]
m Chapeu
man hã
man ter
mar car
max Val
me todo
mente .
mor re
n .
n or
ne ura
ne ve
nucle ar
o cu
objeto ,
obterChunk(chunk. x
op tion
p alavra.
pagina Iten
pap el
pelo s
person al
persona gens
pesos .size();
pincel.draw( pixelBranco,
po inter
posi tiva
pro duz
propa gar
pró ximo
pu la
qu im
que i
que ue
r ho
re i
re sto
rea ção
recurso s
resultado ;
ro t
s 1
s 2
s inc
s.length ;
sen ao
shader Halo
sn printf(
st ado
status Exportacao
std:: unordered_
stream >
sty le
super ficie
t in
temp );
textura s/
this. x
tiles et
um n
v Chapeu
v ando
va g
var(--verde );
varia vel
vetor ;
viz inha
w 2
w ar
x :
x ]
zeros (
í cio
" %
" a_
" quanto
" terra_
"O pcao
' .
( chunk);
( não
( sqrt(
(caminho ,
(d ));
) /
)) ,
). fill
. write
.add ("
.create Element
.length ())
.se para
.separa tor
00 /1000)
00 0
1 (
1 ),
12 3
2 f,
3 3MB
4 5MB
5 6
6. 5
9 0
9 9
9 E
< DES>
< div>
< input
</h 3>
</span> ;
<br> <br>
>:3 "
A ");
A B
Ancora. INFERI
Anima cao
ArrayList< Componente
Atual izacao
Ba ixo
BotaoDpad (
Byte Order
C OR
C as
C at
C redi
Can ais
Cap tura
Cat che
Catche d(
Co me
Color. W
Color.W H
Color.WH ITE
Cri sta
Cursor Catched(
D a
D ec
E ditText
Entrada Vegetacao
Envi ronment
Estú dios
F LO
F UN
FIM >
FLO A
File .separator
G A
G era
GL2 0;
GSA /
Gdx.input.set CursorCatched(
Grad Pesos
HO \"},"+
Hitbox ();
ID s:
IN TER
IS O
In dic
In tern
LO G
Lon g.
M P
MJson.pra Objeto(
Math. sin(
Math. to
Math.min( 1f,
Mo tion
Modelo ]:
O _
Ortho graphic
Orthographic Camera
PONTO_VIRGULA ,
Pa int
Painel (
Pen dente
Quad ro
RAIO _V
RAIO_CHUNK S
RAIO_V IS
Re construído:
Res posta
S I
S eu
Sele ction
Short Buffer
Sol ido
StringBuilder ();
T RO
T ile
T udo
T á
TI ON
T_ COL
TipoRender. OPACO
Uniform Location
Variavel *
Vector3 ();
VertexAtt ribu
View port
X O
[ '
[0] .
[1] );
[256 ];
[x ]
_ gpu
_ pos
_B I
_real _distribution<float>
a k
a, b)
ace le
al to
alg uns
algu ma
align :
alis ador
altura Item,
anima coes
anti gos
aoTocar (
ar( int
array Str
art ic
art ificial
as m_
ati va.
attPesos Adam
audio /
b on
b re
ba ral
ba te
blocos /
botao _
c X
c in
c y,
camera. un
camera.un pro
camera.unpro jec
camera.unprojec t(
camera.unproject( toqueAuxiliar
camera.unproject(toqueAuxiliar .set(x,
capa cidade
carreg adas
carregar( const
ce dura
chamadas istema
chu va
class="chave"> const
class="chave">const </span>
co racao
col umn
com.badlogic.gdx.graphics. GL20;
com.badlogic.gdx.math.Vector 3;
com.minimine. ui.
com.minimine.mundo. geracao
comple to
con o
condicao ;
config _
confirmou )
constantes [i].
contem (
continu ar
corpu s,
cre di
cul a
d st
de stru
debug Ca
desco berta
desenhar Y,
dia Noite
dialogo Criar
dialogo Entrada
dir );
dire ito
dire ção
document .createElement
em :
em baral
en vol
encontra do:
ent ro
es ();
escalaPixel );
esperado [i];
est ando
ex pl
f ++)
f ase
fa ces
fal ar
fal so
fe ra
flu tuante
fra se
funcoes [
grad _
gradiente )
ho ,
huma no
huma nos
id ual
if y
im g
in ício
inser t(
int ]
iss pace
ite ;
lado Dist
largura X
lay out
le mb
ler p(
li b
limite Caracteres
lin h
linhas [
lo u
lon go
m z
ma tem
mis sion
mod ifica
momentu m
n ature
n ing
neg ativa
nen hum
no w
norm 2.
novo _
null ,
nuvensPos [base
ope racao
ou t(
paginaIten s.
painel Principal
palavra s
par tir
perda Media
perda Total
pesos [0]
player .
po ten
posi ções
posicao .x
pro ble
r y
re levancia
re p
re ve
reg iao
retroprop Mapa
rgba( 255,
ri tes
rotulo msg
s g
saida Altura
salvar( const
se t(
seja ,
sembl y
sim ,
sizeof( float
sp rites
std:: move
t icas
t ó
t ô
ta ,
tam_ array
temp ,
ten do
ten tar
texto ;
this. camada
this. nome
this.dim Cabeca
this.histor ico.
toqueAuxiliar .x,
tor na
total Testes
ui /
un d
uniform _real_distribution<float>
v .size();
v boId
va lo
val ,
ve io
vector<float> (
velocidade Pesos
vetor es
zerarGradiente s()
é r
é s
" audio/
"vazio ";
$ (
%. 1f
& funcs[fn
&nbsp;&nbsp; <span
( (int)
( 0.
( 1);
( 4
( 6
( Gdx.files.internal
( arq
( id
() ),
(GLES30.GL_ TEXTURE_2D,
(e );
(p ,
(reinterpret_cast< const
(this. p
). length
); \n"
- 1);
./ biblis/camadas/
.luz Fazendo
.parse Double
.substring( 0,
/ 20
0,0, 0},
0.0f };
0x40 200
100 0
1] .
2 7
2 px
3 5MB
4 8,
5 2MB
8 px
A Cada
A MB
A cesso
A rea
AMB IENTE_
AR IO
AV ISO
An ti
Android </span>.
Anti ga
ArquivosUtil .
B A
BL EN
BLEN D);
Bill board
Bio mas
Bit s
C en
CHE T
CHUNK_TAMANHO );
CON CHET
Ch il
Cha racter
Character .is
Cli ente
Color.WHITE );
Con ne
D if
D ig
Data gram
Double .parseDouble
Down (int
E Z
E ach
ES TA
F ixed
F l
F ore
FI LA
Float 32
Fore ground
GRA V
Gdx.gl.gl Cle
Gdx.gl.gl Disable
H u
ID A
IS SO
InputPro ces
InputProces sor
Item (
K K
LE D
Lu a
M AR
MEN T_
Math.to Ra
Math.toRa dian
Math.toRadian s(
Me tho
N C
NAO _FUN
NAO_FUN COES
NUL L)
Nasc imento
Ne g
No ta
O TI
OTI MI
P U
PALAVRA S_
PALAVRAS_ NAO_FUNCOES
PAREN _ESQ
PARENTES E_ESQ
PE DRA
Pal eta
Pr int
Qu ando
Que da
S cale
Sel ,
Shinig a-
Shiniga- OP
T estando
T_ CHAVE_DIR
T_MA I
T_p LONGO
Ter ra
Texto (
ThreadLocal <
TipoRender.OPACO )
Treinador BPE
U p(
Up( int
Valor .texto
Ver sao
Y ))
Z );
Z A
[ n
[3 ]
[f][ c]
\"y\": 5,
_ IN
_ NU
_ global
_ inicio
_ loop
_ pilha
_IGUAL ,
a .size();
a cer
a loca
a.read (reinterpret_cast<
a.write (reinterpret_cast<const
ad r
algum as
alvo s
am or
an i
android.wid get.
anim .
append Chil
ar ios
are ia
as el
as. get(
ation :
ativa ção
att Hitbox();
b p
bar reira
begin ()
bin ário
bits Antigo
bloco (8,
bloco_ estrutura
bol ha
box-s hadow:
buffer.linha (
bura co
c rol
c ân
ca racter
cabe ça
calcul ado
cap ite
cap ítulo
capite l
carreg amento
catch( Throwable
cen e
chunk Leste
chunk Norte
chunk Oeste
chunk Sul
class es
com /
com pa
com.badlogic.gdx. utils.
com.badlogic.gdx.graphics. Color;
com.uniditor.nucleo. entradas
consegu ir
cont ribuicao
contain s(
conte ú
criar Painel
cu ra
d (int
d í
de o
de sp
defPos Dpad
defin ed
den tes
descri tor
diz er
dos.write Float(
dura cao
e cono
eco. <span
editor. entrada.
eh_ ponteiro
embaral har(
emo cional
en ô
engin e.
entrada ,
entrada ;
entrada Altura
equ il
estran ha
exist s()
exper i
f enô
fatal ("
fi lo
filaLuz [fimFila++]
fin d(
flex -
fo ram
fonte Titulo
for Each
forma ções
fput s(linha,
g ito
gan ho
gerar ("
gl _
grad Pq
h )
hid den
ic es
ica .
if stream
if( "
if( a
if( bloco
if( e
if( var->eh_
if(! a)
if(! arquivo)
if(debug )
in fin
index Of(
inst alar
inte res
inter no
ios ::
ist a
jo g
l ice
largura Filtro;
le m
le to
lem bra
lig ação
lim i
lim p
log s
logit s
ls r
m .size();
m im
m ira
m x,
ma pas
mag né
mar Excluir
max Y,
me cân
minimin e-
mix (
mé todo
n ,
n er
n ext
n y
na me
nomeArquivo )
nome_ inicio
numCaracteristicas ;
ob ras
of t
ol a
olhar(). tipo
op en
ou vi
overflo w:
padr ões
painel Selecao
param_ tipos
pequen o
per to
pes quis
pesos [i].size();
pos ;
pos _
position (0);
pra Int(
pro tec
protec ted
qu ân
r );
r or
ra stre
re de
re gra
re se
re util
rea ções
reg i
reg ular
repe ti
requestAnimationFrame (
resolverValor( op.
retro prop(const
rol amento
rotulo Resposta
ru po
ruido 3
sa m
saida Lote
sar jeta
ser ia
sizeof(float ));
spec tive
std::vector< std::vector<std::vector<float>>
std::vector<std::vector<std::vector<float>> >
sty le>
su porta
subst âncias
sy n
t êm
ta dor
tempesta de
tempo ,
tempo ra
ten tando
tensor [i][j]
termin al
teste _tre
tex Coord
tex _
text- align:
this );
this. pesos
this.m B
this.v B
tok ,
trans por
type ="
val Dir
val Esq
var(-- pedra
var(--ouro-escuro )
varia veis.
vector<float> (dim
verificarPerto (
ves se
visualJanela ,
viz inho
vocabTam ,
war mu
ze ra
{1, 0,0,0},
é poca
í l
ún ico
" </span>,
" a
" t
"# 66
"#66 BB
"#66BB 6
"#66BB6 A");
#inclu ir
' /
' }
'- '
'= ')
( *
( 0
( R.
( `
( altura
( esquerda,
( idc
( indice
().set Scale
(arquivo _
(i con
(icon es,
) ");
* d
+ 1)
-- ;
-> att(
. Fechar
. al
. processar
. to
.add Botao("
.al loca
.alloca te
.allocate Direc
.allocateDirec t(
.getData ().setScale
.is File
.set ProjectionMatrix
.setProjectionMatrix (
/ 0
0% ,
0x F
1 2,
1 b
1, 0,
1. 0)
16 8,
3 0);
3 1MB
3 7MB
3 9MB
3 F
5 26
6 2MB
6 5MB
6 8MB
64 );
66 66
7 .
9 7
: \n");
: hover
< ALMO>
< float
<h 3>
? ?
A N
AS E
AS SO
Ad j
Ada p
Adap ter
Base ;
Bias [i]
Bin aria
BotaoDpad( Texturas.atlas.get("
ByteBuffer .allocateDirect(
Ca che.
Cache [i]
CaixaDialogo .Fechar
Cam inho
Cas o
Cl icado
DE P
DEP TH
Data OutputStream
Des locamento
E r
E sperado
ENT RA
EZ ES
EventListener ('
Ex portar
Exec u
F or
FI L
File InputStream
File.separator );
Foreground Color
Funcao )
G rupo
GL20. GL_C
GLES30.gl Enable
GU A
Gera dor
I m
In clu
In er
In stancia
Iner cia
Inic iando
Jo gar
Linha ;
List< Object>
Lu z,
M an
MAX _F
MAX _V
Model Instance
Multi plica
Mundo. def
No *
No Binaria
No tas
O B
O u
OpenSimplex2.ruido 2Fractal
Ori gem
P ASSO
P l
PARENTESE_DIR ,
Paco te(
Para me
Per spective
Perspective Camera
Pl ana
Pro p
Prop rie
Proprie dade
R P
S to
STA TUS
Sem ente
Simples (
Sin taxe
Subaquat ,
T Y
TA XA
TE ,
T_ ID
T_V EZES
Textura s;
TextureRegion (icones,
To do
V az
VBO Grupo
VertexAttribute s.
X );
[ 0,
[ t
[ x3
[0] .size();
[0].size() ));
[2] );
[i ++]
[t] [i]
[x2 ],
] )
][ y][
_ 5.
_ PI
_ chamadasistema
_ in
_C O
_CAR VAL
a baixo
a ma
acum ula
ado ,
aga chado
ak y
al -
an g
an ç
an ça
aoTocar (float
appendChil d(
ar te
ati var
ativa )
attPesosAdam 1D
avan ça
ba stante
bias [i]
binar y);
ble (
bloco. prop(entrada);
bo ra
bol has
bor da
botoesDpad. put("
bra co
bu st
c r
ca che.
ca usa
ca ver
cacheLote Bloco.
cacheLote Norm
camadas [i]
can to
canalEntrada ;
canvas. height
capa city
cel ula
cer to
ch ron
char )(
chaves );
chron ize
cion ar
class="func"> Android</span>.
clique Relativo
co ,
co st
codigo.charAt( posicao
colh ido
com um
com. engine;
com.badlogic.gdx.graphics.g lu
com.badlogic.gdx.graphics.glu til
com.badlogic.gdx.graphics.glutil s.
compa ct
con junto
construirVocab( corpus);
cont ar
conteú do
cor ri
corre tos
corren do
criar Interface
ct x)
ctx.fill Rect(
cu bo
d ,
d P
da no
def Otimizador(
defPosDpad ("
defin ido
dele te();
des car
desenhar Y);
di d
dia ,
dialogo Sair
dicion al
dimSaida ;
dir Sol
dis co
dis.read Float
do wn
editor.motor .
en file
en viar
era m
erro sistema
es /
es que
esc alar
escala )
espal ha
espec ífico
est udo
extra ir
f ati
f get
fa ixa
fi q
fila Estrutura
fo o
foo ter
fos se
fprintf( saida,
funcoes[ num_funcoes
fus te
g i
ge tação
global X,
global Z,
grad V
gradiente 3D
h er
hidden ;
ia ,
ic e-
id s
if(strcmp( L.tk.lex,
im er
ima ge
in d
in den
in set
indo w
iniciar ()
inte lig
ios:: binary);
ir q
is h(float
is. close();
isso ,
it al
ita ndo
k o
lin k
linha ;
linha_ sem
linha_sem _
linhas[ indices
luzSol ar
man i
mat 4
max_ element
mo le
molé culas
mundo ;
má qu
n ar
n essa
n io
necess ario
no de
nome }
num erico
ob ser
ocu pa
of stream
opera dor
otim iza
p p
pai X,
per ce
persona gem
popu p
por ém
principal mente
printf("[ Modelo]:
pro cedura
programa ção
pron to
pu lo
ra to
raio ;
re cu
re ver
real mente
rece be
rect Anterior
registra dor
registra dores
render ,
res idual
retro prop(
retroprop Lote
s creen
s. containsKey
s. put("
s. values())
salvar _
sarjeta Larg
sb. draw(
ser ve
sh if
si tu
sprite .set
sprite Mira
sr c
std:: endl;
str h
su ge
su r
syn chronize
ta gem
taxaAprendizado )
te ve
tempo rada
teste Pos
text Content
texto Ex
this. bias
this. taxaAprendizado
tipo Ativacao
todos Token
total ,
treinador. merges
treinador. treinar(
true ));
ul as
ultimo Tempo
v t
v w
val ;
ve getação
vel mente
verificar_stm t(
vir t
volu me
w eb
x 6,
x2 4,
}, {
  6,
á cil
á veis
é nio
ê s
íst ica
" \t
" bl
" camada
"> <div
"></div> </div>
"H m
# define
${ nome}
${ this.
% 3
% [^,],
% d:
' {
'\ \
( 4)
( 5
( T,
( Texture.TextureFilter.Nearest
( final
( m,
( palavra
( treinador.merges
(( short
((short )(
((short)( idcBase
(Gdx.files.internal ("
(Texture.TextureFilter.Nearest ,
(chunk ,
(int) (
(nome Arquivo);
(p [
(programa ,
(t p
(textura );
(treinador.merges );
)) )
* )
* >(
- "
- a
- dim);
- lo
-obra ">
. 0
. height
. transform
. valor,
.add ((short)(idcBase
.bin ");
.def Espaco
.end ();
.get ());
.get ();
.get( i);
.h ero
.isFile ())
.length )
.length );
.se le
0.0 1
0.5 f;
00 0;
1. 0,
12 0,
14 4
2. 0f,
24 ]
32 ];
4 8]
44 MB
5 1MB
5 5MB
5 9MB
5 :
6 );
< label>
< p
< title>
</ title>
<std::string ,
= 0
= 0.00
=" ;
==== ="
======== =
================================================ ====="
================================================ =========
=> s+
? !"
A P
A gua.
A na
AC TION
AS ;
Action Mo
An alisador
Ancora.CENTRO ,
Area Barra
Arquivo (caminho
Array Reuso
Att ribute
B i
Bloco. texId
Bloco.numIds.get( id);
CA MADA
CO _CARVAL
CampoTexto (
Captura do
Cli p
Col le
Colle ction
Con tro
Conne ction
DEF _
DIREITO ,
DO S
Dia Noite
Dialogo (
Dif erente
EL 0
ELE MENT_
ELEMENT_ ARRAY_BUFFER,
Ex iste
F AC
FLOA T,
Filter (Texture.TextureFilter.Nearest,
Fluxo Agua.
GradGenerico (
I I
Inclu de
Inicio ;
K ira
L ex
L im
Lin has
Long. parse
Long.parse Long
Luz Bloco
M )
M sg
MA IS
MENT ARIO
MIN _
Math.random()* 2
MemN ativa.
Menu ();
MetaMundo (x,
Metho d
Mo tor
Model Batch
Motor Geracao
Mundo. TAM_CHUNK
N CO_CARVAL
N u
No Acesso
No Por
No Valor(
O ,
PALAVRAS_NAO_FUNCOES .add("
PONTO_VIRGULA );
Pre en
Pre v
Qu em
RP G
Rec ur
Rotulo ("
S PA
S istema
S t
SD F
Set ())
T CP
TA ]
TO K
TRO NCO_CARVAL
T_ FLU
T_ RE
T_MA IS
T_MEN OS
Tam );
Te clado
Tela (
Texture.TextureFilter.Nearest );
U SO
U se
UER DO,
V EN
VertexAttrib Pointer
VertexAttribu te(
VertexAttribute( VertexAttributes.
X :
Y ][
[ "
[ 32];
[ E
[${ classe
[${ i
[${classe }]
[0] [0];
[t ][
[x0] ,
[x1 0],
[x2 ]
_ LA
_ buffer
_ colche
_ var(
_ verificar_
_F ON
_F rag
_RE USO
_S H
_b ss
_colche te
` ;
` [${classe}]
a a
a cabe
a parece
aberta )
aconte ce
ad j
ada m
ado .
al erta
al im
altura Conteudo
altura Visivel
amplitude ;
an cor
ando _
android. conten
android. text.
android.conten t.
anim ation:
arquivo .close();
array );
assert( aprox
at. prop(
ati v
ati vas.
au xiliar
auto *
azul "
base "></div></div>
bat alha
bem ,
beta 1
beta 2
bio lóg
blo ck;
bloco Meta
bloco s;
bo ar
botoesTam ,
c Z
c imento
c n
c to
c vt
c â
ca f
cabe los
cabe ç
cabeç alho
camadas .
caminho );
campo Em
capitel "></div><div
captura r
car tu
cen a
chave )
chunk. meta
cient í
cl ima
clamp( praInt(
class=" coluna
class="col- base"></div></div>
class="col- capitel"></div><div
class="col- fuste
class="col-fuste "></div><div
class="coluna "><div
class="num"> 1
com bust
com par
com.minimine.utils. array
coment ario
comp ile
comp lex
compar til
con texto,
con v
confi gu
consegu e
constructor (
contem( toqueX,
cor )
cor );
dan ça
de ci
def en
delta Dist
der (
des de
dim ,
dim FFN
dir .
dirP s.get
dirPs.get AbsolutePath
dy nam
dynam ic
dynamic _cast<
e vit
e volu
editor. modo
eh_ array
en so
end if
ep s);
es con
es q,
es sas
escopo )
espa camento
espe ciais
estados.getOrDefault( Chave.calcularChave(c
evi ta
ex pr
excessao(T_ PONTO_VIRGULA);
expl icar
f cmp
fati as
fe char(
fil tra
fila Luz,
fl atten
funcion a
ga rante
gerenciadorUI.processar Toque(
gl _Frag
gl_ Position
gpu _
grad (p[
grad Ana
grad K
grad Num
grad Pk
gradiente Saida
hidrog énio
i ++;
ic as.
idc .add((short)(idcBase
idc Transp
iden t
if( m
if( mundo.
if( tipo_
imple men
iniPesos He
inic i
int[] {
inte gra
inten sidade
inter medi
inv. tamSlot
is mo
it y
ition :
ix map.
iz ,
j anel
java.util. HashMap;
jogador )
jun tar
l _
l z,
lerp X
lig ado
linear-gradient (
linha );
list a.
liv ro
log ("
log s.
m sub
m x
ma cao
madeira _
max X,
mem bro
min X,
min Y,
min Z,
min er
modelo s
ms r
msg_ def
mu da
multi plica
mundo ,
nao _
nature za
norm 2
norm Saida
não ,
o per
oculta 1.
olharProximo (1
on C
or g
otim izado
ox ida
pai X
pai Y
pai Y)
parse Int(
parâ metro
pen dentes
perda Epoca
pixel );
pixelBranco ;
plasma .
pode res
pow( beta
pre v_
precis ion
pres são
prev_ lin
printf(" \n
println (
pron ta
quis er,
r b,
r ão
re corte
re des
rele v
renderiz ação
res (m
res um
rgba( 0,0,0,
ri t
ro sa
ro sto
rono mia
s. clear();
sa b
sa i
saida _
sb.append ('
selecao Come
selecao Final
sequ ência
sequ ências
setor es
shader Domo
soma );
soma DNorm
start ();
string 1
style ="
synchronize d(
t ência
ta dos
ta is
tal vez
tam ,
tamanho )
tamanho ,
tan gulo
taxa )
taxa ),
tem Parametros()
texto s)
textura ,
textura Id
throw s
tipo );
toString ());
topo ",
tor no
total Linhas
total mente
trabal ho
trans ition:
trein ador;
treinador.treinar( corpus,
type def
u me
u_ proj
ultimo Erro
ultimo Passo
um p
umMenosBeta 1
umMenosBeta 2
un ding
valor Padrao
var(--verde -dim);
verifica dos
verificar( abs(
vi do
w ard
w1 1,
width =
x 9,
} ).
} `);
}] `);
á ria
árvor es
é ,
─ ─
" C
" M
" Que
" \"
" bom
" céu
" precision
" qual
"+ e);
". mini
": "
": 3"
"A h
"camada .h"
"t ransp
"transp arência
% )
% s,
' ('
' ))
'). value
( 20,
( 64
( Typeface
( op
( resultado
(Typeface .
(dim );
(dim Atencao
(e vento
(nome ),
(origem X
(saida Dim
(size_t )
). vetor;
++ k)
- index
-> se
->se cond
-index :
-s cale
-scale =
. 7
. Entry
. begin();
. flush();
. native
.Entry <
.getAbsolutePath ());
.native Order
.retroprop(grad );
.text Content
.y ;
.z ;
0) /
0.0 5
0.1f )
0.5 )
1,0, 0},
15 );
15 ;
17 9,
2 ));
20 0,
2D ;
3 ]
32 )
38 4
5 7,
5 7MB
5 f)
6 22
6 5
6 6MB
7 )
7 1,
7 L;
8 6
< body>
< head>
</ body>
</ head>
</ html>
</span>( <span
=" viewport
=" width=
="viewport "
="width= dev
="width=dev ice-
="width=device- width,
=== \n");
A US
AC K
AL UE
AUS ENTE
Ad icao
Al pha
Arquivo (String
Array .
ArrayList<Componente >
B R
B ash
Bill boar
Bloco s
BlocoMundo (x,
Buffer ;
ByteOrder .nativeOrder
C UR
CI AL
CUR SO
CaixaDialogo (
Carreg ando
Ch an
Con dicional
D E_
D ele
DI FER
DIFER ENTE
DO :
De bu
Dele te
EN Q
En q
En tro
Es querda
Es se
FAC E_
Fe char(
Float.parse Float
Fon te
For ma
G PU
Gaia :
Gdx.app. error(
Gdx.app.error( NOME
Gra de
I P
IDENTIFICADOR ,
IN EL
In ferior
Integer ,
L.fonte[L.pos ];
Linha );
Lo op
Loc ,
Log it
M UL
M UN
MUL TI
Map .Entry<
Mapa [idc
Max Reuso
Media Player
Multiplica cao
Mundo. RAIO_CHUNKS
N ativa
NIVEL_ AUSENTE
O k
OR_ ESQ
Objeto 2D(
Objeto Instancia
P alavra.
P artic
P e
PA G
Pr im
R_ EL1
Reg ist
Regist ro
Ren de
Rende riz
Resul tado
Retor ne
Rol agem
S P
S en
S ize
SA ID
T RA
TRONCO_CARVAL HO\"},"+
T_ TEX
Tempo rada
Textura s
Texture (Gdx.files.internal("
TextureRegion ;
To po
U AL
UI. po
View por
Viewpor t(
[ b
[ eixo
[ int]
[ linha
[ x2,
[0] )
[t] );
[t][ s]
\" TRONCO_CARVALHO\"},"+
_ id
_ local
_ start
_BLOCO S
_NU VEN
``` Bash
a [i]
a cho
a locar
a res
a v
abstra ct
acor do
add (
add _
af ter
aju star
al ;
al te
aleat or
altura )
altura Filtro
altura Filtro;
alvo ,
an o
ao Fechar(
ap res
arquivo _asm);
array .
ass in
at rito
ata car
ativo s
att LuzCompleta
att Socket
attPesos Adam(
atual ização
aum enta
base Z
bioma Atual
bloco ,
bloco Baixo
bo m,
bolha .
bpe Rank
bra ço
buffer. append
c endo
c ull
camadas )
camera );
camera. foco
caminho /
campoNome .texto
ch ador
ch at
char )
char set
charset ="
che gar
che io
checkpoint Dir
chunkZ );
click ",
clo ne
coluna )
com. engine.
com.badlogic.gdx.graphics.g2d. TextureRegion;
con for
condi ção
conhec imento
console.log (`
const ante
consumir(TipoToken. PARENTESE_DIR,
consumir(TipoToken. PONTO_VIRGULA,
contains( telaX,
content ="width=device-width,
contro le
contro les
coordenadas [i+
cor Final
corre tamente
cull ing
cursor. linha
cursor. mover
câ mera
d Norm
de code
de ixa
de sa
defin ição
definir Acao
deno m
des pa
desejado X
despa chador
di do
dir )
direita V
dis(gen );
dis.readFloat ();
dispo se
dist Neg
dist Pos
div i
divis or
dos. flush();
dz ;
e.get Value
e.get Y
elé tr
embaralhar( sem
end ();
enten der
entrada (8,
entrada Canais
esca pe
escala X,
esp i
espaco Inferior
espi ri
et c.
evit ar
ex tern
ex tre
execu ção
explo são
extra i
f ->
f rio
f ro
f ácil
fe cha
fe itas
fe rec
fe renci
filo sof
fim )
fonte.draw( sb,
for( File
fp _
funcoes [i].
ga io
gera dor
geral mente
gerar Chunk
gra u
gradSaida )
gsa .
gu a,
h itbox.
horizon tal
horizon te
i dos
id )
