o s
d e
r a
t e
q u
r e
qu e
d a
i s
t a
m e
p a
c a
n h
m a
u s
i a
l e
l h
o ,
n a
l a
p e
d os
v e
v a
c e
n te
pa ra
S e
r á
Se nh
Senh o
Senho r
n ã
nã o
o is
b e
de s
re i
i lh
re s
z e
n s
o me
f a
f e
D e
f ilh
n e
t ra
é m
i nh
v os
g a
te r
n ta
ç a
qu a
De us
is s
i da
o ra
s te
d ia
n os
c h
b a
t os
ç ã
m ã
p ois
t ã
inh a
b re
iss e
le s
tã o
o bre
n da
r ta
ter ra
m os
J e
I s
h ome
çã o
s obre
r que
o rque
filh os
i ze
u ma
ma s
d isse
ra e
rae l
e ra
n tra
Is rael
j a
n tão
t o,
o da
qua n
o dos
i ca
ve r
u ra
- s
t odos
-s e
b ém
m bém
u ,
p orque
t oda
ida de
d o,
Senhor ,
g ra
o fe
rá s
- lh
M a
-lh e
a os
E ntão
b ra
m inha
filh o
S a
o ntra
c ontra
us a
t á
i na
c ia
é s
d ize
e les
n ça
v ra
Q u
ta mbém
õ e
vos s
v ia
o lh
de u
home m
v ó
ch a
vó s
ch e
f ica
pois ,
õe s
l ta
ca r
nte s
A s
o a
o rta
s tá
mã o
va m
la vra
e stá
te us
re ce
z a
D a
l os
i x
pa lavra
i me
s us
home ns
me s
ra ,
ga r
d á
me n
o ns
que m
i ma
N ã
1 0
f ora
que le
Ma s
Nã o
mã os
c ons
1 2
dize n
dizen d
dizend o
ste s
nos s
1 3
As s
quan t
o res
i tos
ç ões
ois a
quant o
ma r
c ome
c oisa
gra n
Je sus
p os
r ém
o rém
l ém
1 4
o nh
Deus ,
- me
r da
n cia
u lh
p orém
dizendo :
pe la
Da v
Dav i
Je r
de i
1 5
ulh e
i fica
m ulhe
p res
fa ze
1 6
dia s
n ome
r is
qua l
1 7
c ora
t inha
toda s
i nda
R e
ia ,
Ass i
- te
Assi m
n deu
c idade
1 8
gran de
i te
t ura
e ja
j us
B a
1 9
era m
u dá
i nte
J udá
disse :
M ois
Mois és
p orta
ra s
i dos
usa lém
Israel ,
u gar
l ugar
Jer usalém
çã o,
fe z
o nta
olh os
iss o
s eja
P a
d ã
le i
de les
Qu e
a via
f ize
inh o
ê s
ofe rta
Qu a
e nta
fa la
h avia
P ois
Senhor .
a inda
coisa s
r ofe
a quele
porém ,
n ó
nó s
g ora
e ntra
fora m
p rofe
mulhe r
o ndeu
va nta
v o,
p ondeu
onh e
-lhe s
v ida
O ra,
O s
P orque
n ce
cora ção
Qua n
u nta
ca usa
ia m
c onhe
E is
jus t
a lta
T a
ix a
a rda
u arda
J a
i ã
o la
i rei
ca be
p í
ime n
c ó
E g
o u,
mes m
voss a
u ém
s pí
g uém
spí r
car ne
os .
o bra
c la
Eg i
terra ,
m ina
r ó
g uarda
palavra s
- vos
spír i
pa is
u -se
ta vam
filh a
Re s
ê ncia
r mãos
Deus .
é ,
J os
des de
D isse
r ma
d ores
de m
i ns
le vanta
i rmãos
s tão
p ró
voss os
ver da
de ra
ns a
C ris
l á
e stão
e ntão
mesm o
c í
pa da
j á
q ü
a nos
d ois
men t
des e
o lta
des ce
o be
a gora
dã o
noss o
Ta mbém
n do,
i ça
o vo,
voss o
r quanto
o rquanto
g o,
o u-se
spíri t
spírit o
Quan d
Quand o
os ;
m inho
ce s
s tavam
c re
ca minho
profe ta
p ovo,
na ções
s pe
e stavam
m í
u de
Sa u
pos s
imen t
iment o
l is
s pada
e spada
verda de
r ês
c olh
i pe
de pois
de na
l va
C a
cabe ça
ime i
os a
j unta
Sau l
faze r
just iça
re t
Res pondeu
n tura
a cha
p ó
a ntes
t rês
de ixa
v olta
l ó
o ite
ix o
n á
u ns
e stes
l o,
u tra
u nh
Senhor ;
la nça
ve ntura
vós ,
qua is
me lh
p ã
c ipe
o utra
n cipe
í ncipe
r íncipe
alta r
L e
n o,
p ríncipe
Ja có
O S
fize ra
r imei
re d
a le
t í
p rimei
o va
p ô
des ,
dera m
Israel .
ve lh
c onta
p orquanto
ló r
- a
mã o,
rá ,
ne la
d ura
fa z
ne nh
r dena
g lór
ment o
cí p
Cris t
Crist o
terra .
u x
n ia
o rdena
e spe
l í
te nda
dese r
Judá ,
le .
ça s
i be
men tos
à s
s enta
n oite
n guém
i nguém
ste m
i ver
que les
f í
ofe rece
be ,
Egi t
Egit o
i -vos
stem unh
rá .
c itos
te stemunh
dei r
r citos
é rcitos
x ércitos
Davi ,
e xércitos
ba ixo
g uma
l guma
o ve
u los
u itos
o ã
qua t
quat r
che fe
a lguma
i dão
fí c
fíc i
d irei
homem ,
F ilh
ces s
A S
ia .
fa mí
famí l
a lva
minha s
vossa s
noss a
mos ,
H e
r ventura
o rventura
u nda
z ia
quatr o
i za
i ba
c ura
E ,
i do,
l ô
i rás
d ifica
mã e
Que m
red o
n inguém
v inte
is .
c o,
l ica
i qü
n iqü
i niqü
Senhor :
p la
m bra
famíl ia
i lô
v idos
m uitos
b ilô
pró p
próp r
la ,
e difica
primei r
Ba bilô
u va
Sa m
Jesus ,
s alva
h era
hera nça
l s
i va
que ima
o vos
S A
i fíci
fa rei
Jerusalém ,
mulhe res
v ilh
fizera m
i lis
iã o
- nos
u vidos
redo r
o uvidos
la r
pô s
noss os
m pe
f ilis
tinha m
ta be
i go,
irmãos ,
cons e
re u
ra ó
a raó
a ze
F araó
t iver
r mão
i rmão
r ifica
come r
n ima
ma nh
n via
a nima
p és
- á
Pa i
o ux
r oux
de baixo
pa rece
ce u
res pondeu
is cíp
pó s
c ô
d iscíp
m ia
ba lh
tra balh
cidade ,
obra s
Filh o
u lta
ste n
Egi to,
l guém
i vra
s ina
re ve
tra ns
a lguém
j ude
Deus ;
c ima
t roux
p us
inte r
me d
- e
v inha
r ifíci
c rifíci
l de
che i
p ovos
o re
te .
e nvia
príncipe s
A bra
a crifíci
Abra ã
s acrifíci
iniqü idade
m ês
eles ,
manh ã
filis teus
velh a
inh o,
dia ,
filhos ,
c á
o ze
E spírito
pe los
r mos
p o,
pela s
P orta
des pe
cô va
terra ;
filha s
ma i
nenh u
nenhu m
homens ,
n ze
jude us
e sten
te nta
rei .
l ivra
ga n
Porta n
g ura
s colh
n ver
-te ,
s os
e spírito
-lhe :
espe ra
i nta
discíp ulos
p lica
pã o
- os
onh a
re ba
profeta s
e nça
te i
e scolh
ga ra
da de
o velha
i mos
pres s
o los
r dem
l me
pa nh
primeir o
ale g
deser t
o mina
é us
Jos u
l ã
desert o
le ja
pe leja
gara m
ter na
u tos
ma ,
dã o,
de ce
c éus
rta me
rtame nte
re para
a pós
-lhes :
a te
des ta
b oa
o ta
g uns
l guns
t u,
pres ença
i nce
o mão
o ntes
v ã
l omão
o rdem
Sa lomão
deles ,
a queles
m ba
r deir
R a
a pe
n des
is ta
s senta
e melh
s emelh
us ca
c â
A gora
e me
Israel ;
ç os
ovelha s
i eram
s que
é u,
n ja
rei na
ve re
o nze
le n
côva dos
n quanto
qual que
qualque r
ia ;
u ncia
n uncia
e sque
a lguns
-e i
reve la
rá ;
p á
g unta
r gunta
s ca
o nos
a junta
chefe s
m inh
Is a
porta s
conhe c
va i
J oa
ca minh
c éu,
car r
filh o,
ome nte
b usca
lme nte
n fe
r reu
o rreu
d ras
pais ,
j ura
ns ina
que i
T oda
i có
Z a
ç oa
Moisés ,
c res
o rda
v ieram
mas ,
res t
fala r
t iza
l tura
dias ,
entra r
d oze
t idão
e le.
g na
m po,
p orventura
n qü
olhos ,
oferta s
re .
lí n
lín g
líng u
língu a
i gna
mia s
res pe
o rdeir
i ra,
- la
l tidão
u ltidão
m ultidão
nja m
njam i
junta me
juntame nte
le :
ida s
s cre
tra ze
e nsina
Jesus :
na quele
r inta
direi ta
che g
família s
o ver
ga ção
re za
t rinta
semelh a
verdade ,
ste ,
b á
Je o
conse lh
ve stes
Jos é
Jerusalém .
n ia,
n vos
o nvos
c onvos
me nta
ince ns
pe rgunta
gan d
gand o
Deus :
s obe
rei ;
ne cess
Moisés :
de rá
i u,
m ontes
e sca
reba nh
n ú
cora ção,
e le:
p repara
o cura
r ocura
o x
Israel :
- los
i nqü
inqü enta
t ou-se
tã o,
re nta
c inqüenta
re gação
respe i
nia s
E S
r ba
i ú
que bra
ce de
pe dras
g onha
trans g
anima is
-me ,
u ba
o mos
aze ite
za s
f orta
â ncia
ná c
L a
Pa u
s eme
á ba
m onta
s ába
e njami
B enjami
Benjami m
Sa n
Cris to,
dos ;
e scre
Ba a
carne i
carnei r
oã o
ls a
f ome
just o
p rocura
SA L
poss u
pró x
d ência
mar ,
g í
própr i
des a
o uva
ter ce
Le vanta
terce i
g regação
d í
n gregação
o ngregação
c ongregação
e não
s enão
pe rma
forta le
ú l
ter mina
qua renta
t rás
caminh os
aleg r
l ina
o vilh
pe n
n ovilh
a nuncia
cla m
tei r
Abraã o
M oa
i fe
nós ,
C e
perma ne
r nác
tabe rnác
s omente
iss o,
nú me
re ja
núme r
r onze
b ronze
b omina
o nce
r ome
a bomina
SAL M
SALM OS
s és
m panh
ú s
Sam u
Ma na
ca na
o mpanh
c ordeir
e nquanto
mulher ,
s ois
u la
c ompanh
Babilô nia
ba l
men i
seja m
Je re
próx i
Babilô nia,
g over
ia nça
troux e
i ce
Jere mias
v á
Mana s
ve ze
veze s
a va
próxi m
Manas sés
t ores
havia m
d imento
Samu e
n dência
Samue l
d oa
re de
ve nh
oã o,
desce ndência
p rome
Jacó ,
E R
De s
pe que
E ze
tabernác u
Josu é
n ova
respei t
respeit o
o mpe
dores ,
des via
come ç
t ou,
c once
ce rtamente
nome ,
C h
u rifica
ca nta
m be
m para
clam o
Agora ,
t utos
testemunh o
me nsa
mensa g
mensag e
v ores
fize ste
começ o
p urifica
gover na
c lina
n tou-se
a ssenta
f á
u te
vida ,
f unda
começo u
des c
a lém
ga res
n uma
ta tutos
s tatutos
e statutos
númer o
m orreu
I AS
r iba
v inho
ix e
ca do,
na ,
n tão,
Isa que
nações ,
l tos
espada ,
Eze qu
e gí
egí p
o fa
u ver
o uver
própr ia
u ndo,
ca í
tí s
Mas ,
ga da
ris te
ta ntes
r doa
transg res
semelha nte
transgres s
Portan t
Portant o
h ora
m idade
le que
Ezequ ia
Ezequia s
ra ra
sus c
imen to,
r idade
incens o
respondeu :
ra ma
zia s
pa lh
mensage i
mensagei r
venh a
cres ce
m inho,
r ova
Sam á
m ilh
eles .
F e
fa rás
gra da
egíp c
tís s
egípc i
v ista
gra ças
P orventura
Quan t
Quant o
icó r
r icór
e ricór
ta .
is ericór
mês ,
ne g
Ass í
Assí r
lei ,
des ca
E L
v í
p rova
b res
Saul ,
r ina
A inda
ca minho,
convos c
convosc o
ra vilh
nenh uma
ale gra
u ida
u ja
o go,
ima g
c orta
m isericór
a grada
t ica
o rma
vós .
I C
u be
susc i
h ouver
o que
p re.
profe tiza
i ja
tabe le
le mbra
pe rece
As a
r ver
E stes
permane ce
va los
ca valos
d ver
i ência
ch ora
is :
ma ravilh
m pre.
a dver
pe cado,
nias ,
mai o
lugar .
nossa s
Res p
Resp o
lei r
ras ,
e rás
I I
poss e
s is
Respo n
e mpre.
Samá r
s empre.
vã o
p obre
tercei r
cheg o
chego u
me u,
e nver
r vo,
í ve
pe rdoa
d igna
i plica
t iplica
l tiplica
u ltiplica
de le.
l ência
n ica
maio r
r rama
o mbe
r ombe
t rombe
r te.
m igo,
v ora
p ulta
cia s
da quele
- o,
E les
ter r
lá b
láb i
melh o
te rá
imag e
pe rver
rara m
San t
s omos
rest o
n çoa
be nçoa
câ ma
justiça ,
exércitos ,
ús t
rás ,
J ô
Jô na
Jôna ta
Jônata s
ga rei
e rvo,
e la,
s ervo,
n dimento
pus eram
a parece
testemunh a
ins t
nfe r
mes a
pe le
b ois
nte ndimento
e ntendimento
e pulta
s epulta
própri o
o rmos
r ove
de cla
Ma r
u ze
a dos
ra z
a rá
s tabele
o bres
a ltura
d olos
coisas ,
entra da
deles .
i osa
T odos
b ora
era ções
g erações
espera nça
deser to,
v onta
vonta de
Baa l
le ntes
u ia
de fe
de rrama
m ultiplica
m undo,
i tantes
f orma
b itantes
a bitantes
h abitantes
era ção
fa lta
lã o
P orquanto
c ra
o mba
a ja
r ibe
g eração
be is
a bençoa
carr os
Pau l
Paul o
pla n
m ida
cons t
i rma
jus tos
c oa
mos tra
s ola
g úst
s sola
trombe ta
n gúst
a ssola
a ngúst
g reja
i greja
monta nh
escolh e
is tra
é ia,
i cia
Portan to,
nte m
e stabele
Sant o
posse s
milh a
úl t
n ife
terceir o
p reza
sacrifíci os
sacrifíci o
Egito .
ca p
pa n
te ndes
fa re
ma nife
f ormos
í dolos
u gares
l ugares
r mão,
salva ção
s palh
t ina
ce le
f irma
n digna
s erás
enver gonha
ta re
a ltos
Toda via
tra z
agora ,
t idos
sina l
a lde
r fe
h aja
i rmão,
t riste
o rei
l ouva
e terna
trabalh o
idade .
n clina
r dão,
ordena ra
c ova
ora dores
r ra,
a ta
i ndigna
des preza
p rove
de vora
tíss i
trabalh a
porta n
pres enta
re ;
men to,
nome .
palavra ,
cons ola
n contra
o rdão,
e spalh
S ião
Pai ,
N aquele
o cha
p le
lar gura
adver s
tabernácu l
tabernácul o
conhec imento
reina r
homens .
e nsa
anos ,
inst r
f ogo,
ra tica
o rte.
instr u
p ratica
r ofa
re ze
- ã
carne ,
e ncontra
meni n
que zas
che garam
i-vos ,
E lis
ris e
palavras ,
g ião
disse -lhes:
mãos ,
dia m
ba te
c los
i clos
s iclos
le ã
che gar
fa rise
p rofa
J ordão,
alde ia
g uia
melho r
o lência
u do,
r ox
p rox
a ver
s oa
de ;
o car
le ce
lugar ,
menin o
m oradores
manife s
cap i
c uida
altar ,
pã e
pãe s
des ola
) ,
o -vos
r dura
o rdura
g ordura
próxim o
escre ve
V ó
v ore
Vó s
ca mpo,
ta da
Abraã o,
ma nce
conselh o
mance b
vida .
cíp i
n cípi
i ncípi
r incípi
ve ,
p rincípi
advers á
adversá r
adversár i
rfe i
d uze
pá s
o nver
come te
l ibe
m -a
m-a ventura
pa cí
coração .
c ã
a nta
c usa
s anta
nela s
is ce
re gião
ra ze
l dade
r inha
troux eram
p rece
os pe
ste ja
dias .
o -a
cidade .
i quezas
i nclina
s cra
o ube
mensageir os
mos ;
F aze
c onos
e tenta
s etenta
ch uva
mentos ,
m -lhe
dize m
ia r
f ã
Jos é,
Ba r
r iquezas
e scra
be i
a presenta
tíssi m
va lentes
c uja
Joa be
faze m
spíri to,
A cabe
iã o,
Ca na
de re
Jeo ia
ma dos
mesm o,
Cana ã
d o-a
h aver
G ibe
posses s
Ch e
d onos
pa ga
ba t
a re
nome s
p õe
S í
Qu i
ma na
x alta
d ância
n dância
u ndância
b undância
ne r
re gar
ordena nça
cabeça s
tá b
táb u
tábu a
n ve
ga do,
r -lhe
de is
come ça
a bundância
m bora
Respon deram
p len
a press
e dade
conta dos
Faraó ,
p ris
be ns
r pe
pla nta
i dão,
c orda
o donos
n do-a
c odonos
r vore
aldeia s
u codonos
a prox
ins ensa
b ucodonos
a bucodonos
N abucodonos
Nabucodonos o
Nabucodonoso r
mãe ,
revela ção
conta mina
levanta n
levantan d
levantand o
mes mos
E U
de ma
Je osa
ra m-lhe
des fa
farise us
const i
consti t
constit u
egípci os
ime leque
misericór dia
pa dece
possu i
ola s
d isso
te nce
r tence
Ma a
queima da
desce u
re pen
v iva
e ntes
M ica
Jeosa fá
pe rtence
á rvore
# #
-ã o
íve l
Pa ra
Pa r
us o
-se -á
terra s
e xalta
iú va
Moa be
b oão
o boão
u cede
maravilh a
t igo,
pa terna
dese j
l â
L í
o mão,
l omão,
v iúva
Sa lomão,
mã ,
e steja
traze r
u teir
o uteir
ret o
med i
homem .
deles ;
nte nda
chei r
ca nça
l cança
a lcança
vere m
ce nte
l idade
i edade
n ove
c onver
r ocha
c iência
c riba
o mí
s criba
e scriba
o mbra
s ombra
u rece
A quele
t udo,
t reze
lábi os
Ba s
o -nos
le m
eles ;
disse -lhe:
ve mos
va da
n tigo,
r ospe
ribe i
zias ,
a trás
ve res
desta s
Josu é,
Benjamim ,
os sos
lde us
o migo,
c omigo,
Cristo .
-á s
pa ,
ia d
iad o
u inte
g uinte
e guinte
s eguinte
pus e
vós ;
nda s
n que
a iba
s aiba
p rospe
ribei r
pací fica
desca ns
mulheres ,
o usa
d irás
Le v
direi t
direit o
i res
noite ,
d idos
Judá .
fa rta
ca ldeus
lâ m
pás coa
esque rda
ra bal
r rabal
a rrabal
pa rta
ga ,
de ixo
te l
r ota
levanta ra
u pe
f le
rá r
r ou,
deixo u
rár i
r repen
a lão
s alão
i raram
b salão
A bsalão
e ntão,
peque n
res susci
companh e
companhe i
sába d
sábad o
lã o,
s soa
pe ssoa
s oube
manhã ,
ins ,
Jerusalém ;
onh o
está s
D ize
ne les
p ura
ca rta
levantara m
e mbora
possess ã
p orei
c iosa
perver s
a beis
s abeis
abomina ções
cordeir os
che gando
N IC
ns ã
Egito ;
l inho
ste .
anima l
Pa s
t olos
Is s
Lev i
o ntigo,
c ontigo,
Elis e
decla ra
r vores
á rvores
b ula
despe da
u menta
necess i
ora r
olhos .
entra ra
re colh
E M
f ú
s pan
ga l
ga na
judeus ,
r os;
e span
paterna s
tábua s
governa d
va ntou-se
governad o
c ompe
governado r
te mpo,
s tiver
m ove
e stiver
boa s
inter m
z ija
o zija
g ozija
u ltura
Jesus .
sina is
o ja
r ve
Davi :
necessi ta
princípi o
s tidos
o ridade
Jeremias ,
b orda
-te -ei
revela ção,
a no,
i ndo,
ma g
os o,
des ;
qu ém
pos ,
fala va
o tos
o derá
va lh
interm é
EM IAS
t oridade
entrara m
intermé d
u toridade
interméd i
a utoridade
ca mpara
prece itos
duze n
profa na
duzen tos
be ra
e rra,
u erra,
ú be
g uerra,
R úbe
Rúbe n
Manassés ,
alegr ia
J oão
e ssenta
obe dece
s essenta
rebanh o
ate n
Senhor ?
cora ções
cess a
x termina
i ções
fala ra
r imento
n dena
o ndena
De ixa
nda n
ndan d
vere da
pos ta
ba ta
campara m
c ondena
e tel
nte ce
B etel
sis t
aprox ima
mas s
t ocar
pres a
iniqüidade ,
profetas ,
pais .
parece r
u -me
Davi .
D ã
la dos
n dos
e xtermina
ndand o
a camparam
intermédi o
ve stidos
re fú
refú g
refúg i
p iedade
Lí ba
r -se-á
g rina
u rba
t urba
press a
a panh
i mpe
dia .
f é,
pró b
o prób
oprób r
ver ã
opróbr i
He b
Heb r
Hebr o
nda ra
ca dá
zia :
i zia:
d izia:
f icia
Deus ?
pe car
Hebro m
ma ldade
fa rinha
I OS
m orte.
l ice
p lo,
r ças
azeite ,
pã o,
ba nda
ê e
êe m
le p
leã o
r ilh
ret r
d uma
da queles
ve u
bata lh
r tina
o ficia
p oderá
o ntece
i bula
Qua l
c ontece
r ibula
a rrepen
pe rfei
portan t
p re;
portant o
m pre;
e mpre;
s empre;
b oão,
Moa be,
Ce rtamente
os ta
caminhos ,
reu n
ter ã
filisteus ,
e ba
primei ra
discípulos ,
He r
conse r
cana ne
Porque ,
o pa
o rifica
l orifica
g lorifica
r ção
o rção
p orção
la ã
Ba laã
come re
g os.
Q U
Pois ,
ná s
o rtina
batalh a
o boão,
c ortina
t ribula
i quém
re gozija
S iquém
cheir o
d omí
domí n
desej o
domín i
ute ns
utens í
r ia.
utensí l
utensíl i
prome s
promes s
promess a
clamo r
l ma,
sina g
sinag o
ouvidos ,
lá ,
dem ô
demô n
demôn i
c rifica
fora ,
nós .
r onta
tenda s
u -a
C R
Levanta -te,
terã o
p rimento
re compe
m primento
NIC AS
va leir
ca valeir
céus ,
p onta
carneir os
l ca
I SA
ISA Í
ISAÍ AS
c to,
fe cha
c ox
r ida
l iba
t is
CR Ô
a crifica
CRÔ NICAS
a lma,
s acrifica
m plo,
Par t
b imeleque
A bimeleque
e isce
s eisce
prove i
tíssim o
ixe s
fare is
i rá,
r iança
c riança
mãos .
cabeça ,
toda via
m ite
nã ,
s ú
x ce
J oão,
n gana
p ultura
e ngana
e pultura
s epultura
a parta
o cede
montanh osa
oque ,
vestes ,
ch i
Se ja
esten d
nta s
Se o
anos ;
anos .
ifica d
ificad o
e nfer
A T
le ite
dema is
A h
r ocede
pa cto,
p rocede
recompe nsa
r -te-ei
nsã o
va sos
o ntenda
i verem
c ontenda
b ã
ví ncia
o víncia
r ovíncia
p rovíncia
e m-aventura
B em-aventura
image m
p obres
u lsa
f res
p ulsa
x pulsa
angúst ia
r utos
a lmente
fortale za
Jer icó
len tos
d ões
r ompe
des eja
a tos
filho .
Ra m
O lh
H á
n dei
câ n
cân t
e xce
cânt i
sú plica
e xpulsa
Seo l
seisce n
seiscen tos
ndara m
opróbri o
n didos
Nabucodonosor ,
i olência
desc o
nova s
conos c
conosc o
redor ,
jura mento
n ou-se
t ú
de termina
ia me
iame nte
u irei
nome ;
desco b
N T
re grina
pe regrina
descans o
pacífica s
maravilha s
s ucede
justiça .
J ó
la menta
A za
d omina
e gura
s egura
n cha
- Se
outra s
lá c
lác i
i enta
povos ,
ordena d
ordenad o
us ã
I EL
ra mos
acha ra
descob r
r ienta
i dões
o rienta
alta res
o rças
escriba s
b ner
A bner
n istra
i nistra
bera m
transgress ã
mar .
livra r
n x
e nx
D á
mes e
mese s
ste ndeu
ta mos
e rve
r uba
r ruba
vam .
achara m
orienta l
m inistra
pa láci
v iolência
f rutos
a contece
m pos,
v inho,
Bas ã
S ião,
s tores
pa stores
m ola
inter i
tã ,
cima ,
necess á
necessá r
med o
o rás
nica s
ls o
ix ã
o press
r oda
le g
t ome
rás ;
- G
ovelhas ,
- lo,
Le mbra
ER EMIAS
J EREMIAS
pa ixã
s erve
interi o
de rruba
interio r
t iverem
canane us
re ciosa
m padece
i nve
o mpadece
apress a
t regar
n tregar
ra rei
utensíli os
seme nte
ra inha
ba tiza
quatro ce
ca pa
re ça
n dem
Da mas
pés ,
E u,
te rás
A na
p raze
iam ,
a tenta
filhos .
rá :
p reciosa
e stendeu
cânti c
Part i
te mplo,
o mprimento
c omprimento
retr i
despeda ça
o -lhe
após tolos
possessã o
refúgi o
U EL
neg ó
negó c
negóc i
u vores
o uvores
l ouvores
inter p
profeta ,
ordenança s
o no,
b ina
rece b
homens ;
G uarda
t ota
Re i
ra í
seja is
todos ,
i fa
r ô
G ra
guarda s
la tos
oficia is
i latos
mar ã
P ilatos
M UEL
SA MUEL
f orças
cele bra
i gos.
o u-me
N ó
Nó s
o ntem
be ne
lei .
acha r
T u,
a bra
cidade ;
coração ;
príncipes ,
a cresce
re ntes
homem ;
v re
i vre
bá ,
i tavam
chei o
tra ta
interp re
p orás
e ntregar
domíni o
nte ceu
o nteceu
Elise u
c onteceu
treze n
trezen tos
m ém
t idão,
j ú
u milha
transgress ões
faze i
últ i
bronze ,
esque ce
g unda
Joa be,
Jos ia
Josia s
pais ;
carneir o
Moisés .
deixa ra
eles :
n grande
palavra .
Fe z
côvados ,
u to,
o cla
r ocla
be mos
ora m
e gunda
s egunda
l ivre
quatroce n
quatrocen tos
La bã
c osta
verã o
a cusa
manceb os
a rás
be de
estatutos ,
rei nos
fome ,
o dem
Za car
Zacar ia
Zacaria s
Pau lo,
rest i
resti t
v iver
possu í
jus to,
m idos
S ime
u reza
S ã
Sã o
glór ia,
s fe
la sfe
tra ve
i quei
ba nque
f ta
u -os
z imos
J á
l tidão,
u ltidão,
tota lmente
m paixã
m ultidão,
o mpaixã
necessár i
i mola
c ompaixã
ce ndeu
t idões
l tidões
u ltidões
o -o,
Olh a
d o-o,
n do-o,
o u-a
acamparam -se
Qui r
ta nás
Sa tanás
defe i
estabele ce
tare m
bois ,
T inha
ta rás
cá r
comer ã
famílias ,
L ouva
i çoa
porta ,
me nos
D ia
de mos
de cre
ca dores
d ó
Toda s
de la,
t iva
a fta
banque te
a cendeu
m ultidões
N afta
Sime ã
Nafta l
p odem
p rocla
e ngrande
Naftal i
d o-lhe
praze r
c ência
p ousa
Jeoia da
n tudo,
o ntudo,
E I
R EI
upe r
n dí
acha d
achad o
E nquanto
testemunha s
Isa í
Isaí a
Isaía s
levantando -se
iam :
i á
Jônatas ,
re garei
pés .
res ga
vinha s
z iam:
i ziam:
d iziam:
n do-lhe
interpre ta
h umilha
c ompadece
ste ;
sinago ga
conser va
a ndando
r oso,
faze s
le vantou-se
coisas .
va nte
Pas s
ribeir o
Jer oboão
pris ã
e spírito,
Is ma
m ple
indigna ção
o mple
c omple
image ns
formos a
fle cha
desce r
Za d
rebanh os
res plan
iniqü ida
fez ,
vida ;
re v
oferece re
cons ulta
be ze
u re
à quele
siclos ,
Israel ?
c obre
herança ,
desce ra
da ntes
apanh a
beze r
g os;
b lasfe
u almente
cá lice
r turba
pe rturba
r pura
ú rpura
lâm pada
p úrpura
Ê N
G ÊN
GÊN ES
GÊNES I
GÊNESI S
fe ,
n fa
n firma
milha res
o nfirma
prome te
Ezequias ,
abomina ção
Disse ,
a fa
caminho .
dias ;
f ê
V olta
come ra
comera m
is pe
b j
sobe rba
o ços
trombeta s
te mpe
convos co,
r ras
E QU
possui r
bezer r
u ndí
d içoa
compaixã o
l diçoa
ma ldiçoa
b itavam
m igos.
a bitavam
marã o
Jer oboão,
Her o
dize i
mass a
a bre
p oja
chei os
b lica
d urece
manifes ta
o diam
p odiam
E ntão,
próxim o,
cordeir o
exércitos :
nda mentos,
ma ndamentos,
b unda
olhos ;
nações .
de v
ma us
s onho
l gar
lança d
lançad o
pa í
paí s
i ras,
qu ina
- na
la da
i -lhe
rá ve
o nfe
m undí
Z EQU
h abitavam
i mundí
E ZEQU
a bunda
des poja
u blica
EZEQU IEL
c onfirma
cia m
Isma e
Ismae l
REI S
s uper
comerã o
restit u
transgressã o
ude z
r opa
cortina s
n udez
ressusci ta
ma is:
e be
câma ra
re midade
t remidade
n tou,
Samár ia,
x tremidade
triste za
e xtremidade
f iança
e ntou-se
novilh o
D os
exércitos .
o -lhes
ret idão
v imos
des tra
u ca
c us
porque ,
d ô
z re
i zre
izre e
izree l
C ons
re conhe
ca nsa
m orta
Gibe á
Ra que
Raque l
quei m
res .
A ra
a maldiçoa
t ropa
trave s
A mém
fa ls
s tamos
ta lentos
v ém
i veu
n tí
Líba n
Líban o
verda deir
de lidade
i delidade
f idelidade
câma ras
carr o
seme a
mida des
ajunta ra
ver gonha
guarda ,
faze re
fazere m
s carne
recolh e
m unda
filhos ;
Sa ra
Assír ia
EU S
qua d
f ô
deixa n
deixan d
As e
me los
ca melos
e lém
B elém
sobre v
sobrev i
e scarne
deixand o
i munda
p ublica
n fiança
descera m
o nfiança
c onfiança
deixara m
jú b
júb i
Parti ra
retri b
i rá:
Partira m
d irá:
te -Se
Se i
-se -ão
Canaã ,
raz ã
fa lsa
clamo u
o te.
agrada s
S ina
Babilônia .
a mina
x amina
Quan do,
irmãos .
nós ;
-lhe ,
l to,
i tada
ape d
dizem :
ra c
Assír ia,
ga ção,
Ba la
o -te,
Sa lva
Senhor !
d imento,
E stá
ja ma
Balaã o
P é
vereda s
jama is
ajuntara m
o ntí
c ontí
i migos.
ispe r
contí n
n imigos.
contín u
i nimigos.
le vante
a conteceu
ca mpos,
pequen i
a vemos
o cente
n ocente
constitu i
corda s
Acabe ,
desfa lece
T ER
novilh os
-la s
l ux
primeir os
redor .
espada .
montes ,
b iam
direita ,
ca ma
i mão
S imão
herança .
i rá.
T ia
ó le
obras ,
v inda
p onha
terr o
oferece u
seja s
ná ve
i náve
m ináve
pequeni nos
i nocente
r -se-ão
Ase r
traves s
c onfe
d o-lhes
t rina
n durece
Louva i
c ontem
necessári o
Aza r
Azar ia
r iamente
Azaria s
cavaleir os
f ronta
r po,
e ndo,
e rpe
s erpe
m ura
fortale ce
sába do,
pessoa s
tenda ,
S imei
d iã
mentos .
espada ;
altar .
obe d
palavras .
t ude
t imento
de ã
terra ?
iss ã
u ve,
c idos
b ola
falara m
ze l
le nh
pres ta
oa b
m oab
moab i
x ulta
r fã
ó rfã
iam .
ba ixa
dura nte
i vo,
o mináve
n do-lhes
u trina
o rpo,
i diã
i deã
moabi ta
re gação,
de ne
c rô
receb i
prospe ra
montanh a
us car
porventura ,
mãe .
Je f
noite .
conver te
filhas ,
lí cia
ores ,
Saul :
rei no,
i u-se
N inguém
arrabal des,
mulher .
x pe
mar ;
mas .
pa rede
o mai
quan tos
na í
Des de
e naí
lenh a
B enaí
b omináve
o utrina
crô nicas
c orpo,
M idiã
G ideã
Benaí a
a bomináve
d outrina
Benaía s
rá bola
terro r
e ndurece
óle o
Bala que
aped reja
razã o
e stamos
o uca
tempe s
Quir ia
i mite
comere is
Iss a
reinar ,
cuida d
conce be
ate m
a pres
re garam
irmão .
iniqüidade .
escolh i
j ove
peleja r
z omba
pa v
r ime
deserto .
J Ó
come rá
i mí
va -se
na n
valh o
ga nça
u rta
re ção
n gança
r imí
i ngança
cuidad o
p rimí
atem o
Issa car
v ingança
pa rábola
atemo r
e xulta
imundí cia
fize s
d isper
u lgar
S obre
quebra nta
acresce nta
t irei
s tí
capi tão
n obres
d ido,
San to,
a ções
f uma
o mida
o ça
própri os
Assim ,
d qu
ixa s
espe cia
f ore
o uso
o uba
i nfer
mesmo .
mas ;
ga mos
Ca r
bra ços
la i
f la
Se ,
a dade
dize s
o u-os
H adade
c omida
dqu i
primí cias
fizes s
fizess e
e xpe
g regação,
n gregação,
o ngregação,
c ongregação,
confe s
h avemos
velh o
n dimento,
e xamina
t regarei
nela ,
u gada
X O
F ize
liba ção
cessa r
b sist
-nos ,
Jeosafá ,
r co,
escra v
pe ixes
l éia,
men d
n tores
morreu .
z pá
le ões
Isaque ,
ne a
i no,
salva ção,
dirás :
nações ;
verdade .
i gar
Jacó .
v oa
r ude
n timento
us .
He s
r idos
poss o
na .
pôs -se
i zpá
Ê XO
u bsist
M izpá
ÊXO D
n tregarei
s ubsist
a dqui
confes s
ÊXOD O
nte ndimento,
fore m
e ntendimento,
r ouba
fuma ça
l imite
conhec i
b uscar
r dene
o rdene
a fronta
g ualmente
i gos;
a cima
f iquei
costa s
a bemos
u bina
preciosa s
l ipe
s tiverem
te is
reun i
faze is
t rári
## ##
insensa t
sepulta ra
tabernácu lo,
língua s
assola da
de pressa
é ze
ba la
escolhe u
salva r
i tá
olh e
o funda
E spírito,
rei r
A ntes
obras .
l ores
ga re
carne .
g ü
E ra
i ões
últ imos
f lores
éze r
r ofunda
sepultara m
p rofunda
c ubina
s abemos
insensat o
n trári
l gal
ordene i
e stiverem
n cubina
o ntrári
i lgal
o ncubina
c ontrári
ca ntores
c oncubina
j ulgar
Sina i
Sei r
o bj
F oram
i rarei
va idade
mãos ;
Judá ;
plen d
adversári os
va lece
desa mpara
r riba
is tura
u be,
r ze
e ze
ensina r
i ta.
semelha nça
começa ra
A ta
oite nta
cabeça .
filhas .
testemunh o,
vida s
v irei
N os
ca bra
r ência
obra ,
perece r
ma j
portas ,
r tura
de ze
la midade
dia ta
Ma ta
x orta
mar gura
lá g
u ia,
a margura
lág r
idas ,
maj e
ca lamidade
diata me
re valece
m istura
maje s
o rze
diatame nte
t orze
obj e
G ilgal
ca torze
p rude
nan d
nand o
retrib u
Zad oque,
ma ns
r ono,
inve ja
segura nça
r nou-se
Ram á
a spe
e rári
o dere
ce vada
tercei ra
novilh o,
des igna
ra iva
escolh idos
resplan dece
p é,
d ica
fize stes
Ass u
i quem
e nce
u porta
também ,
cadá veres
i dura
de nta
mã s
Ca le
is rael
c ou,
ras ;
n itos
A lém
ch ã
na queles
re u,
s uporta
o rnou-se
M erári
t rono,
plend o
plendo r
e ntregarei
Hes b
Hesb o
Hesbo m
p ouso
ve stí
IC O
júbi l
che u
Labã o
últi m
traze n
is ?
l tíssimo
cox a
carneiros ,
ponta s
outeir os
Basã ,
constitu í
convosco .
cheg u
ter re
assenta d
pos a
r teir
L ó
neg o
t ora
comer ,
a paga
v êem
v ires
da be,
altar ;
deixa rá
re ca
j umenta
u lso
M ER
era ,
car mes
imen tos
comer .
C oa
a do,
n canta
o ne
ate ,
N Ú
céus .
o-vos ,
pele j
b ite
Jeoia qu
l ou,
ná r
e mba
m -lhe:
NÚ MER
Jeoiaqu i
ra m-lhe:
carmes i
e ncanta
NÚMER OS
Jeoiaqui m
p ulso
carmesi m
chegu e
assentad o
o rteir
israel i
p orteir
júbil o
n cheu
trazen d
israeli ta
A ltíssimo
ê nitos
e ncheu
g ênitos
ence r
o gênitos
m ogênitos
p odere
lágr i
i mogênitos
r imogênitos
p rimogênitos
r ugada
d rugada
ma drugada
va ;
Samár ia
s agradas
p unh
moabita s
r rentes
ce ifa
Ah !
spír itos
u co,
b rota
lem b
p raz
O R
despe rta
conheci d
libe rta
justiça ;
v irás
da ços
fe l
pele ,
côva d
estend i
i vinha
ná ,
fazer .
é ia.
d isso,
re midades
a umenta
pós i
) ;
p ção
-te .
o ndas
us ;
d ra,
í re
u mes
reconhe ce
Davi ;
-e is
ste :
é p
r isse
n vida
te mas,
tra j
re cusa
mulher ;
o nvida
íre m
pe dra,
t remidades
c onvida
e spíritos
pe daços
côvad o
d ivinha
x tremidades
conhecid o
o rrentes
x pulso
a divinha
e xtremidades
a bite
trazend o
re pouso
a raiva
p revalece
s araiva
i ló
apres e
tempes ta
tempesta de
contem pla
a lei
EU TER
contínu o
escarne ce
va ca
la nce
J izreel
va vam
s entou-se
o tí
interpreta ção
iniqüida des
mento .
r dó
Amém .
r uirei
le ne
a ux
cha mados
glór ia.
rece beram
N Ô
tá -
igreja s
flecha s
Zacarias ,
-me ;
escolhe r
sepulta d
z inha
i nze
s ião
Ch a
inter r
entra nh
ma ncha
ra :
ma do,
s ma
o do,
ne le.
r idão
r iado
v iu,
Baal ,
mar g
o lo,
ca sião
interr o
O NÔ
o casião
sepultad o
tá- l
EUTER ONÔ
traj e
tá-l o
e xpulso
D EUTERONÔ
t ruirei
DEUTERONÔ M
h abite
ce rdó
DEUTERONÔM I
a cerdó
DEUTERONÔMI O
s acerdó
sacerdó c
sacerdóc i
vestí b
pa rência
de rriba
a parência
começara m
i léia,
l iléia,
a liléia,
G aliléia,
u lar
zel o
issã o
Salva d
m oços
blasfe ma
púrpura ,
oferecere is
rev o
prisã o
procla ma
i mão,
S iló
cântic o
lei t
Siquém ,
medi u
ídolos ,
ava l
T raze
gerações ,
a vam
reina d
queima rá
res e
plan í
d ifíci
dize is:
Eles ,
rei ção
animais ,
jura r
l fe
r igo,
r -lhes
desvia r
dize -lhes:
coração :
B oa
profe r
g us
c ifica
Je oa
g és
u deram
fala m
-me .
de va
A R
da nça
red u
ga vam
lei ta
Filh o,
reinad o
planí c
r reição
leit o
planíc i
u rreição
Salvad o
planíci e
s urreição
Salvado r
res surreição
a chei
majes ta
deze s
e xorta
dezes s
dezess e
ma ntimento
f urta
p ouca
r mura
serpe nte
Azarias ,
novilhos ,
ç o-te,
n vém
dev o
e ce
decre t
n ou,
chi fres
perfei t
t iraram
R oboão
m piedade
caldeus ,
província s
i -a
companh ia
c ris
l iança
procura m
Todavia ,
de trás
r rota
cons p
côvados ;
deserto ;
conselh e
pão .
caminho ;
m iam
g olas
gra dá
ndes te
t ões
be lde
Levi ,
carneir o,
d úl
qua rta
anuncia d
istra dos
filho ;
carros ,
salvação .
cadá ver
todos .
d orar
busca m
Re be
ca ver
c ulta
O V
u mbra
l iza
a dorar
anunciad o
r golas
gradá ve
re belde
a dúl
conselhe i
a rgolas
a liança
de rrota
perfeit o
i mpiedade
p uderam
o nvém
pe ço-te,
u rmura
decret o
c onvém
S imão,
vestíb u
entranh a
entranha s
o lene
s olene
r ép
pósi t
pósit o
últim o
r reu,
t ornou-se
o rreu,
f ontes
eze r
atemor iza
Benaías ,
ma lícia
A í
s olta
fa nh
m -na
tropa s
abunda nte
Dia b
Damas co,
a ndaram
Sa nsão
B IOS
É R
paternas ,
escreve u
Vós ,
encontra r
fariseus ,
n triste
pratica m
C ordeir
José :
O Ã
e ira,
pres entes
m iú
lep ra
eterna me
d onze
g irás
envia d
discípulos :
ga nh
cavalos ,
lá r
i gura
semelh antes
outeir o
P R
f omos
mes t
b ons
r ora
palavras ;
v és
mes ,
opress ã
c omba
-se .
ter ça
o dera
f ina
qua s
e bre
na tura
grande ,
p icia
la ta
í ta
o picia
h ebre
r opicia
etername nte
enviad o
lár i
PR OV
f igura
p ropicia
J OÃ
PROV ÉR
a gradáve
JOÃ O
PROVÉR BIOS
ga fanh
Rebe ca
o culta
n gus
t rigo,
ngus t
des truirei
u ridão
u dos
c uridão
s curidão
e scuridão
n otí
lemb r
Fize ra
Fizera m
Gideã o
Quiria te
recebi d
recebid o
ráve l
Pass a
m igos;
pe cadores
Ismael ,
O bede
bene v
negóci o
NT IOS
á zimos
a provei
criança s
res posta
demôni os
c orreu
carta s
nte a
Betel ,
r mã,
C OR
Sa fã
pequen o
tra zia
defei t
be la
tribula ção
tare is
gan o
prepara d
a bate
cár ce
a lar
